{
  "vocab_size": 8000,
  "vocab": {
    "0": "<|pad|>",
    "1": "<|unk|>",
    "2": "<|bos|>",
    "3": "<|eos|>",
    "4": " ",
    "5": ",",
    "6": "-",
    "7": ".",
    "8": "/",
    "9": "0",
    "10": "1",
    "11": "2",
    "12": "3",
    "13": "4",
    "14": "5",
    "15": "6",
    "16": "7",
    "17": "8",
    "18": "9",
    "19": ":",
    "20": "@",
    "21": "B",
    "22": "C",
    "23": "E",
    "24": "F",
    "25": "G",
    "26": "H",
    "27": "I",
    "28": "K",
    "29": "L",
    "30": "M",
    "31": "N",
    "32": "O",
    "33": "P",
    "34": "R",
    "35": "S",
    "36": "T",
    "37": "W",
    "38": "Y",
    "39": "a",
    "40": "b",
    "41": "c",
    "42": "d",
    "43": "e",
    "44": "f",
    "45": "g",
    "46": "h",
    "47": "i",
    "48": "k",
    "49": "l",
    "50": "m",
    "51": "n",
    "52": "o",
    "53": "p",
    "54": "q",
    "55": "r",
    "56": "s",
    "57": "t",
    "58": "u",
    "59": "v",
    "60": "w",
    "61": "y",
    "62": "z",
    "63": "—",
    "64": "at",
    "65": "on",
    "66": "er",
    "67": "mi",
    "68": "Ġ1",
    "69": "le",
    "70": "in",
    "71": "Ġt",
    "72": "ion",
    "73": "Ġe",
    "74": "Ġa",
    "75": "Ġf",
    "76": "ation",
    "77": "Ġw",
    "78": "Ġmi",
    "79": "or",
    "80": "les",
    "81": "as",
    "82": "Ġmiles",
    "83": "Ġb",
    "84": "Ġth",
    "85": "ath",
    "86": "t.",
    "87": "ed",
    "88": "ce",
    "89": "Ġat",
    "90": "ĠH",
    "91": "Ġav",
    "92": "ain",
    "93": "ĠP",
    "94": "Ġ2",
    "95": "Ġthe",
    "96": "Ġwas",
    "97": "ĠW",
    "98": "0.",
    "99": "/mi",
    "100": "eath",
    "101": "Ġbp",
    "102": "Ġbpm",
    "103": "Ġg",
    "104": "eather",
    "105": "10.",
    "106": "ff",
    "107": "ffor",
    "108": "ffort",
    "109": "lev",
    "110": "ĠL",
    "111": "/mi,",
    "112": "Ġavg",
    "113": "ĠHR",
    "114": "/10.",
    "115": "levation",
    "116": "Ġgain",
    "117": "Ġft.",
    "118": "ĠWeather",
    "119": "iv",
    "120": "Ġeffort",
    "121": "-0",
    "122": "Ġ20",
    "123": "Ġr",
    "124": "un",
    "125": "ĠPer",
    "126": "oc",
    "127": "Ġon",
    "128": "Ġbpm,",
    "129": "Ġelevation",
    "130": "ĠLoc",
    "131": "ĠLocation",
    "132": "ĠLocation:",
    "133": "ĠPerce",
    "134": "ĠPerceiv",
    "135": "ĠPerceived",
    "136": "y.",
    "137": "s.",
    "138": "ar",
    "139": "Ġp",
    "140": "Ġc",
    "141": "Ġ6",
    "142": "Ġ7",
    "143": "ra",
    "144": "ro",
    "145": "es",
    "146": "ĠR",
    "147": "Ġ8",
    "148": "ace",
    "149": "Ġ9",
    "150": "ing",
    "151": "il",
    "152": "ĠC",
    "153": "ee",
    "154": "ond",
    "155": "ondi",
    "156": "ondit",
    "157": "ondition",
    "158": "-1",
    "159": "ver",
    "160": "al",
    "161": "ug",
    "162": "Ġin",
    "163": "over",
    "164": "ĠE",
    "165": "Ġh",
    "166": "ĠT",
    "167": "Ġ5",
    "168": "Ġ4",
    "169": "rail",
    "170": "Ġrun",
    "171": "art",
    "172": "Ġ11",
    "173": "nt",
    "174": "el",
    "175": "Ġ10",
    "176": "da",
    "177": "Ġ3",
    "178": "ut",
    "179": "ĠF",
    "180": "Ġto",
    "181": "ot",
    "182": "Ġ14",
    "183": "d.",
    "184": "elt",
    "185": "ag",
    "186": "Ġ15",
    "187": "Ġl",
    "188": "Ġaver",
    "189": "Ġaverag",
    "190": "Ġcondition",
    "191": "Ġconditions.",
    "192": "Ġ16",
    "193": "day",
    "194": "Ġaro",
    "195": "Ġaroun",
    "196": "Ġaround",
    "197": "Ġ—",
    "198": "ec",
    "199": "Ġ7:",
    "200": "Ġ13",
    "201": "k.",
    "202": "is",
    "203": "Ġfor",
    "204": "erv",
    "205": "og",
    "206": "ugh",
    "207": "Ġtrail",
    "208": "-2",
    "209": "ea",
    "210": "Ġ6:",
    "211": "an",
    "212": "Ġ9:",
    "213": "ong",
    "214": "Ġ10:",
    "215": "Ġs",
    "216": "ĠM",
    "217": "Ġ17",
    "218": "Ġ11:",
    "219": "Ġ12",
    "220": "ree",
    "221": "Ġthro",
    "222": "Ġthrough",
    "223": "eek",
    "224": "ĠPar",
    "225": "eart",
    "226": "Ġrat",
    "227": "Ġrate",
    "228": "erf",
    "229": "est",
    "230": "Ġpath",
    "231": "ow",
    "232": "ĠHeart",
    "233": ".1",
    "234": ".2",
    "235": "gy.",
    "236": "Ġ8:",
    "237": "ĠPark.",
    "238": "Ġpath.",
    "239": "asy",
    "240": "artle",
    "241": "artlek",
    "242": "Ġ203",
    "243": "Ġ204",
    "244": "Ġ202",
    "245": "em",
    "246": "emp",
    "247": "empo",
    "248": "ecover",
    "249": "ecovery",
    "250": "/mi.",
    "251": "erval",
    "252": "Ġ205",
    "253": "ĠFelt",
    "254": "ris",
    "255": "ly",
    "256": "ĠN",
    "257": "ĠWeek",
    "258": "Ġday",
    "259": "Ġrun.",
    "260": "Ġmiles,",
    "261": "ĠHR.",
    "262": "ĠRan",
    "263": "ent",
    "264": "Ġaverage",
    "265": "Ġpace",
    "266": "Ġaveraged",
    "267": "Ġbpm.",
    "268": "ĠI",
    "269": "ĠMor",
    "270": "ĠMorn",
    "271": "ĠMorning",
    "272": "ĠCover",
    "273": "ĠCovered",
    "274": "Ġmin",
    "275": "Ġminut",
    "276": "Ġminute",
    "277": "Ġminutes.",
    "278": "ĠEffort",
    "279": "ĠEffort:",
    "280": "ĠTr",
    "281": "ĠTrain",
    "282": "ĠTraining",
    "283": "Ġlog",
    "284": "Ġlog:",
    "285": "Ġ@",
    "286": "ĠCondition",
    "287": "ĠConditions",
    "288": "ĠConditions:",
    "289": "ĠNot",
    "290": "ĠNotes",
    "291": "ĠNotes:",
    "292": "ĠElevation",
    "293": "Ġgain:",
    "294": "ĠG",
    "295": "ĠGot",
    "296": "Ġo",
    "297": "Ġout",
    "298": "Ġtoday",
    "299": "ĠPace",
    "300": "res",
    "301": "ig",
    "302": "igh",
    "303": "oo",
    "304": "Ġfelt",
    "305": ".8",
    "306": "l.",
    "307": "e.",
    "308": "ood.",
    "309": "ĠRace",
    "310": ".6",
    "311": ".3",
    "312": ".4",
    "313": ".7",
    "314": ".0",
    "315": ".9",
    "316": ".5",
    "317": "Ġm",
    "318": "ĠTrail",
    "319": "umi",
    "320": "Ġ18",
    "321": "ect",
    "322": "Ġweather",
    "323": "ĠEasy",
    "324": "ĠRecovery",
    "325": "reez",
    "326": "ind",
    "327": "ĠLong",
    "328": "5/mi,",
    "329": "ĠFartlek",
    "330": "ol",
    "331": "ĠTempo",
    "332": "Ġ7/10.",
    "333": "0/mi,",
    "334": "cas",
    "335": "ĠInt",
    "336": "ĠInterval",
    "337": "risp",
    "338": "unn",
    "339": "Ġmug",
    "340": "Ġ6/10.",
    "341": "Ġ8/10.",
    "342": "tr",
    "343": "ad",
    "344": "Ġhumi",
    "345": "Ġ9/10.",
    "346": "Ġbea",
    "347": "Ġbeac",
    "348": "Ġbeach",
    "349": "Ġ5/10.",
    "350": "Ġwind",
    "351": "ĠB",
    "352": "Ġperf",
    "353": "Ġperfect",
    "354": "inis",
    "355": "inish",
    "356": "inished",
    "357": "Ġcol",
    "358": "Ġrain",
    "359": "2-0",
    "360": "Ġbreez",
    "361": "Ġtra",
    "362": "Ġtrac",
    "363": "ĠRiv",
    "364": "ĠRiver",
    "365": "ĠRivers",
    "366": "ĠRiversi",
    "367": "ĠRiversid",
    "368": "ĠRiverside",
    "369": "ĠCent",
    "370": "ĠCentra",
    "371": "ĠCentral",
    "372": "1-0",
    "373": "Ġhil",
    "374": "Ġhill",
    "375": "Ġsunn",
    "376": "Ġcrisp",
    "377": "Ġwat",
    "378": "Ġwaterf",
    "379": "Ġwaterfr",
    "380": "Ġwaterfron",
    "381": "Ġover",
    "382": "Ġovercas",
    "383": "Ġd",
    "384": "Ġdow",
    "385": "Ġdownt",
    "386": "Ġdowntow",
    "387": "Ġdowntown",
    "388": "Ġ10.",
    "389": "Ġcan",
    "390": "Ġcanal",
    "391": "Ġtr",
    "392": "Ġtrea",
    "393": "Ġtread",
    "394": "Ġtreadmi",
    "395": "Ġtreadmil",
    "396": "Ġforest",
    "397": "Ġpres",
    "398": "Ġpreserv",
    "399": "Ġmuggy.",
    "400": "Ġfog",
    "401": "Ġn",
    "402": "Ġne",
    "403": "Ġneigh",
    "404": "Ġneighb",
    "405": "Ġneighbor",
    "406": "Ġneighborh",
    "407": "Ġla",
    "408": "Ġlak",
    "409": "Ġlake",
    "410": "Ġ206",
    "411": "9/mi,",
    "412": "4/mi,",
    "413": "Ġhumid.",
    "414": "Ġwindy.",
    "415": "Ġweather.",
    "416": "1:",
    "417": "Ġtrails.",
    "418": "Ġcold.",
    "419": "Ġgree",
    "420": "Ġgreen",
    "421": "Ġgreenw",
    "422": "Ġgreenwa",
    "423": "Ġrainy.",
    "424": "-10",
    "425": "Ġbreezy.",
    "426": "Ġtrack.",
    "427": "Ġwaterfront.",
    "428": "Ġhills.",
    "429": "Ġcrisp.",
    "430": "7/mi,",
    "431": "Ġdowntown.",
    "432": "Ġtrail.",
    "433": "Ġsunny.",
    "434": "8/mi,",
    "435": "Ġpreserve.",
    "436": "Ġho",
    "437": "Ġhot.",
    "438": "ĠHad",
    "439": "Ġtreadmill.",
    "440": "Ġovercast.",
    "441": "2/mi,",
    "442": "Ġneighborhood.",
    "443": "3/mi,",
    "444": "1/mi,",
    "445": "6/mi,",
    "446": "Ġfoggy.",
    "447": "3-0",
    "448": "Ġ19",
    "449": "Ġgreenway.",
    "450": "4-0",
    "451": "Ġ10/10.",
    "452": "5-0",
    "453": "Ġ2/10.",
    "454": "8:",
    "455": "2:",
    "456": "5:",
    "457": "Ġ3/10.",
    "458": "3:",
    "459": "Ġ4/10.",
    "460": "4:",
    "461": "9:",
    "462": "7:",
    "463": "6:",
    "464": "Ġ1/10.",
    "465": "7-0",
    "466": "6-0",
    "467": "8-0",
    "468": "9-0",
    "469": "ugg",
    "470": "0-0",
    "471": "Ġstr",
    "472": "Ġfinished",
    "473": "Ġfartlek",
    "474": "Ġeasy",
    "475": "Ġlong",
    "476": "Ġsu",
    "477": "Ġtempo",
    "478": "Ġint",
    "479": "Ġinterval",
    "480": "Ġrace",
    "481": "Ġ5:",
    "482": "Ġ7:0",
    "483": "ĠS",
    "484": "ir",
    "485": "1-1",
    "486": "Ġstrong",
    "487": "Ġstrong.",
    "488": "2-1",
    "489": "reath",
    "490": "reathing",
    "491": "Ġeas",
    "492": "Ġeasy.",
    "493": "Ġpu",
    "494": "Ġpus",
    "495": "Ġpush",
    "496": "Ġ8-",
    "497": "Ġ8-10.",
    "498": "Ġwal",
    "499": "Ġwalk",
    "500": "Ġbi",
    "501": "Ġbit.",
    "502": "uggle",
    "503": "uggled",
    "504": "Ġear",
    "505": "Ġearly",
    "506": "Ġbut",
    "507": "Ġwel",
    "508": "Ġwell.",
    "509": "Ġweek",
    "510": "Ġweeks.",
    "511": "Ġrecovery",
    "512": "alv",
    "513": "alves",
    "514": "Ġwer",
    "515": "Ġwere",
    "516": "Ġtigh",
    "517": "Ġtight.",
    "518": "Ġsur",
    "519": "Ġsurp",
    "520": "Ġsurpris",
    "521": "Ġsurprising",
    "522": "Ġsurprisingly",
    "523": "Ġgood.",
    "524": "ental",
    "525": "entally",
    "526": "Ġtough",
    "527": "Ġtough.",
    "528": "Ġtir",
    "529": "Ġtired",
    "530": "Ġfro",
    "531": "Ġfrom",
    "532": "Ġy",
    "533": "Ġyest",
    "534": "Ġyester",
    "535": "Ġyesterda",
    "536": "Ġyesterday.",
    "537": "Ġeffortles",
    "538": "Ġeffortless.",
    "539": "Ġelev",
    "540": "Ġelevat",
    "541": "Ġelevated",
    "542": "Ġelevated.",
    "543": "Ġfee",
    "544": "Ġfeel",
    "545": "Ġfeeling",
    "546": "Ġfres",
    "547": "Ġfresh",
    "548": "Ġfresh.",
    "549": "0:",
    "550": "gs",
    "551": "Ġhea",
    "552": "Ġheav",
    "553": "Ġheavy.",
    "554": "Ġz",
    "555": "Ġzon",
    "556": "Ġzone.",
    "557": "Ġ7:1",
    "558": "Ġ6:4",
    "559": "Ġ6:5",
    "560": "Ġ11:1",
    "561": "Ġ6:3",
    "562": "Ġ9:4",
    "563": "Ġ11:0",
    "564": "-3",
    "565": "Ġ9:3",
    "566": "1-2",
    "567": "Ġ26",
    "568": "ĠStr",
    "569": "ĠStruggled",
    "570": "Ġ7:2",
    "571": "ĠBreathing",
    "572": "ĠCalves",
    "573": "ĠFinished",
    "574": "ĠMentally",
    "575": "Ġ10:0",
    "576": "ĠLe",
    "577": "ĠLegs",
    "578": "ĠBest",
    "579": "Ġ7:3",
    "580": "Ġ9:5",
    "581": "2-2",
    "582": "Ġ10:3",
    "583": "Ġ11:2",
    "584": "ĠIn",
    "585": "gy",
    "586": "Ġ10:4",
    "587": "Ġ9:2",
    "588": "Ġ6.2",
    "589": "Ġ10:5",
    "590": "Ġ10:1",
    "591": "Ġ9:0",
    "592": "Ġ11:3",
    "593": "Ġ10:2",
    "594": "4-1",
    "595": "Ġ7:5",
    "596": "Ġ6:2",
    "597": "3-1",
    "598": "Ġ9:1",
    "599": "Ġ8:0",
    "600": "Ġ3.1",
    "601": "Ġ7:4",
    "602": "Ġ12:",
    "603": "Ġ6:1",
    "604": "Ġ8:2",
    "605": "9-1",
    "606": "5-1",
    "607": "Ġ8:1",
    "608": "Ġ11:4",
    "609": "6-1",
    "610": "Ġ8:3",
    "611": "7-1",
    "612": "Ġ8:4",
    "613": "Ġ149",
    "614": "8-1",
    "615": "Ġ21",
    "616": "Ġ13.1",
    "617": "Ġ8:5",
    "618": "Ġ144",
    "619": "-30:",
    "620": "Ġ148",
    "621": "Ġ146",
    "622": "Ġ26.2",
    "623": "Ġ139",
    "624": "Ġ163",
    "625": "Ġ156",
    "626": "Ġ150",
    "627": "Ġ160",
    "628": "Ġ143",
    "629": "Ġ142",
    "630": "Ġ141",
    "631": "Ġ147",
    "632": "Ġ151",
    "633": "Ġ158",
    "634": "Ġ155",
    "635": "-10:",
    "636": "Ġ167",
    "637": "Ġ152",
    "638": "Ġ165",
    "639": "Ġ145",
    "640": "Ġ154",
    "641": "Ġ168",
    "642": "Ġ136",
    "643": "ĠPark",
    "644": "Ġ1:",
    "645": "ork",
    "646": "Ġ153",
    "647": "Ġ162",
    "648": "Ġ161",
    "649": "Ġ138",
    "650": "Ġ157",
    "651": "Ġ159",
    "652": "Ġ140",
    "653": "Ġ3:",
    "654": "Ġ169",
    "655": "Ġ164",
    "656": "5-2",
    "657": "Ġ6:0",
    "658": "3-2",
    "659": "4-2",
    "660": "-10-2",
    "661": "6-2",
    "662": "Ġ137",
    "663": "5/mi.",
    "664": "7-2",
    "665": "9-2",
    "666": "8-2",
    "667": "Ġ4:",
    "668": "arath",
    "669": "arathon",
    "670": "arathon.",
    "671": "Ġ166",
    "672": "Ġ172",
    "673": "Ġ2:",
    "674": "Ġ135",
    "675": "Ġ170",
    "676": "Ġpr",
    "677": "Ġpre",
    "678": "Ġprep",
    "679": "ĠWork",
    "680": "ĠWorking",
    "681": "Ġtow",
    "682": "Ġtowar",
    "683": "Ġtoward",
    "684": "0/mi.",
    "685": "Ġhad",
    "686": "Ġ171",
    "687": "-10-1",
    "688": "Ġ23",
    "689": "-10-0",
    "690": "Ġ173",
    "691": "Ġ11:5",
    "692": "7/mi.",
    "693": "4/mi.",
    "694": "9/mi.",
    "695": "Ġ22",
    "696": "5.",
    "697": "Ġ4.8",
    "698": "Ġ174",
    "699": "Ġ134",
    "700": "Ġ4.1",
    "701": "Ġ35",
    "702": "3/mi.",
    "703": "Ġ4.9",
    "704": "Ġ31",
    "705": "Ġ175",
    "706": "Ġ133",
    "707": "9.",
    "708": "2/mi.",
    "709": "Ġ24",
    "710": ".6mi",
    "711": "2.",
    "712": "Ġ4.2",
    "713": "6/mi.",
    "714": "Ġ27",
    "715": "Ġ132",
    "716": "Ġ4.7",
    "717": "Ġ4.4",
    "718": "4.",
    "719": "Ġ131",
    "720": "Ġ12:0",
    "721": "-31:",
    "722": "Ġ25",
    "723": "8/mi.",
    "724": "Ġ29",
    "725": ".3mi",
    "726": "Ġ30",
    "727": "Ġ33",
    "728": "Ġ129",
    "729": "0-1",
    "730": "3.",
    "731": "Ġ28",
    "732": "7.",
    "733": ".4mi",
    "734": "Ġ4.5",
    "735": ".0mi",
    "736": "ĠHumi",
    "737": "ĠHumid",
    "738": "Ġ50",
    "739": "ĠPerf",
    "740": "ĠPerfect",
    "741": "Ġ4.3",
    "742": "Ġ37",
    "743": "Ġ4.6",
    "744": ".2mi",
    "745": "ĠBreez",
    "746": "ĠBreezy",
    "747": "ĠO",
    "748": "ĠOver",
    "749": "ĠOvercas",
    "750": "ĠOvercast",
    "751": "8.",
    "752": "Ġ2042-0",
    "753": "Ġ2039-0",
    "754": ".7mi",
    "755": "1.",
    "756": "Ġ38",
    "757": "Ġ39",
    "758": "ĠHot",
    "759": "Ġ6.8",
    "760": "Ġ2025-0",
    "761": "Ġ2046-0",
    "762": "6.",
    "763": "Ġtrack",
    "764": "1/mi.",
    "765": "Ġ7.8",
    "766": "Ġ2023-0",
    "767": "Ġ2036-0",
    "768": "Ġ2052-0",
    "769": "Ġ127",
    "770": "Ġ40",
    "771": "Ġ2021-0",
    "772": "Ġ2031-0",
    "773": "Ġfoggy",
    "774": "Ġ51",
    "775": "Ġrainy",
    "776": "Ġmuggy",
    "777": "Ġbreezy",
    "778": "Ġ2037-0",
    "779": "Ġ2062-0",
    "780": "Ġhumid",
    "781": "Ġ130",
    "782": "Ġ2038-0",
    "783": "Ġ2035-0",
    "784": "Ġ2041-0",
    "785": "Ġ2043-0",
    "786": "Ġ2047-0",
    "787": "Ġ2058-0",
    "788": "Ġ2060-0",
    "789": "Ġ2064-0",
    "790": "Ġcold",
    "791": "Ġovercast",
    "792": "Ġ2050-0",
    "793": "Ġ2020-0",
    "794": "Ġ2022-0",
    "795": "Ġ2040-0",
    "796": "Ġ2059-0",
    "797": "Ġ2028-0",
    "798": "Ġ2032-0",
    "799": "Ġ2033-0",
    "800": "Ġ2049-0",
    "801": "Ġ2056-0",
    "802": "ĠWind",
    "803": "ĠWindy",
    "804": "Ġ34",
    "805": "Ġ6.1",
    "806": "Ġ2030-0",
    "807": "Ġ2045-0",
    "808": "Ġ2048-0",
    "809": "Ġ2051-0",
    "810": "Ġ2057-0",
    "811": "Ġsunny",
    "812": ".9mi",
    "813": "Ġ4.0",
    "814": "Ġ5.3",
    "815": "Ġ43",
    "816": "Ġ41",
    "817": "Ġ2026-0",
    "818": "Ġ2029-0",
    "819": "Ġ5.7",
    "820": "Ġ42",
    "821": "Ġ2027-0",
    "822": "Ġ5:5",
    "823": "Ġ125",
    "824": "Ġ2024-0",
    "825": "Ġ2044-0",
    "826": "Ġ2055-0",
    "827": "ĠMugg",
    "828": "ĠMuggy",
    "829": "Ġ36",
    "830": "Ġ49",
    "831": "Ġ6.0",
    "832": "Ġ6.6",
    "833": "Ġ2054-0",
    "834": "Ġ2063-0",
    "835": "Ġhot",
    "836": "ĠRain",
    "837": "ĠRainy",
    "838": "Ġ176",
    "839": "ĠFog",
    "840": "ĠFoggy",
    "841": "Ġ7.1",
    "842": "ĠCrisp",
    "843": "Ġ44",
    "844": "Ġ128",
    "845": "Ġ7.5",
    "846": "Ġ2034-0",
    "847": "Ġtreadmill",
    "848": "Ġ5.8",
    "849": "Ġ2053-0",
    "850": "ĠCol",
    "851": "ĠCold",
    "852": "Ġwindy",
    "853": "Ġ20.",
    "854": "Ġ6.5",
    "855": "Ġ7.3",
    "856": "Ġ48",
    "857": "Ġ32",
    "858": "Ġ2061-0",
    "859": "Ġ177",
    "860": "Ġhills",
    "861": "Ġbest",
    "862": "ĠSunn",
    "863": "ĠSunny",
    "864": "Ġ7.7",
    "865": "Ġ7.6",
    "866": "Ġ126",
    "867": "Ġ124",
    "868": "Ġ6.7",
    "869": "Ġ5.5",
    "870": "Ġ7.2",
    "871": "Ġbreathing",
    "872": "Ġ10.2",
    "873": "Ġ5.1",
    "874": "Ġ47",
    "875": "Ġ9.8",
    "876": "Ġ45",
    "877": "Ġneighborhoo",
    "878": "Ġneighborhood",
    "879": "ĠMarathon.",
    "880": "Ġ46",
    "881": "Ġ7.4",
    "882": "Ġ6.4",
    "883": "Ġpreserve",
    "884": "Ġ11.2",
    "885": "Ġ5.4",
    "886": "Ġwaterfront",
    "887": "Ġ10.1",
    "888": "Ġ10.0",
    "889": "Ġcalves",
    "890": "Ġ11.5",
    "891": "Ġ10.9",
    "892": "Ġ6.3",
    "893": "Ġ2065-0",
    "894": "Ġ122",
    "895": "Ġ5.9",
    "896": "Ġ5.6",
    "897": "Ġ7.0",
    "898": "Ġ6.9",
    "899": "Ġ10.7",
    "900": "Ġ5.0",
    "901": "K.",
    "902": "Ġ11.1",
    "903": "Ġstruggled",
    "904": "Ġ11.9",
    "905": "Ġ8.5",
    "906": "Ġ10.3",
    "907": "Ġ5:4",
    "908": "Ġ52",
    "909": "Ġ7.9",
    "910": "Ġmentally",
    "911": "Ġ10.4",
    "912": "Ġ9.1",
    "913": "Ġ178",
    "914": "Ġtrails",
    "915": "Ġ57",
    "916": "Ġ11.8",
    "917": "Ġheart",
    "918": "Ġgreenway",
    "919": "Ġ8.8",
    "920": "Ġ10.8",
    "921": "Ġ8.3",
    "922": "Ġ8.1",
    "923": "Ġ8.6",
    "924": "Ġ8.2",
    "925": "Ġ9.3",
    "926": "Ġ10.6",
    "927": "Ġle",
    "928": "Ġlegs",
    "929": "Ġ181",
    "930": "Ġ123",
    "931": "Ġ120",
    "932": "Ġ8.0",
    "933": "Ġ121",
    "934": "Ġ3.3",
    "935": "Ġ179",
    "936": "Ġ9.0",
    "937": "Ġ11.7",
    "938": "Ġ8.4",
    "939": "Ġ9.9",
    "940": "Ġ10.5",
    "941": "Ġ11.3",
    "942": "Ġ180",
    "943": "Ġ70",
    "944": "Ġ54",
    "945": "Ġ9.5",
    "946": "Ġ8.9",
    "947": "Ġ58",
    "948": "Ġ11.0",
    "949": "Ġ55",
    "950": "Ġ11.4",
    "951": "Ġ8.7",
    "952": "Ġ3.5",
    "953": "Ġ11.6",
    "954": "Ġ12:1",
    "955": "Ġ75",
    "956": "Ġ9.2",
    "957": "Ġ63",
    "958": "Ġ71",
    "959": "Ġ66",
    "960": "Ġ5.2",
    "961": "Ġ60",
    "962": "Ġ65",
    "963": "Ġ56",
    "964": "Ġ0",
    "965": "Ġmarathon.",
    "966": ".8mi",
    "967": "Ġ53",
    "968": "Ġ68",
    "969": "Ġ3.6",
    "970": "Ġ9.7",
    "971": "Ġ59",
    "972": "st",
    "973": "Ġ3.8",
    "974": "Ġ9.6",
    "975": "Ġ73",
    "976": "Ġ9.4",
    "977": "Ġ69",
    "978": "Ġ61",
    "979": "Ġ3.9",
    "980": "Ġ64",
    "981": "Ġ182",
    "982": "Ġ16.1",
    "983": "Ġ3.2",
    "984": "Ġ74",
    "985": "Ġ78",
    "986": "Ġ76",
    "987": "Ġ67",
    "988": "Ġ3.4",
    "989": "Ġ79",
    "990": "Ġ72",
    "991": "Ġ18.1",
    "992": "Ġ12.1",
    "993": "Ġ62",
    "994": "Ġ16.8",
    "995": "Ġ77",
    "996": "Ġ3.7",
    "997": "Ġ15.8",
    "998": ".5mi",
    "999": "Ġ184",
    "1000": "Ġ7:01/mi,",
    "1001": "Ġ5K.",
    "1002": "Ġ17.8",
    "1003": "Ġ18.2",
    "1004": "Ġsub",
    "1005": "Ġ183",
    "1006": "Ġ12.4",
    "1007": "Ġ14.0",
    "1008": "Ġ82",
    "1009": "Ġ19.1",
    "1010": "Ġ185",
    "1011": "Ġ17.1",
    "1012": "Ġ14.3",
    "1013": "Ġ118",
    "1014": "Ġ117",
    "1015": "Ġ16.9",
    "1016": "Ġ81",
    "1017": "Ġ19.4",
    "1018": "1-20:",
    "1019": "Ġ19.8",
    "1020": "Ġ7:30/mi,",
    "1021": "Ġ110",
    "1022": "Ġ3.0",
    "1023": "Ġ15.2",
    "1024": "Ġ13.6",
    "1025": "Ġ95",
    "1026": "Ġ116",
    "1027": "Ġ14.7",
    "1028": "Ġ84",
    "1029": "Ġ14.9",
    "1030": "Ġ14.8",
    "1031": "Ġ15.1",
    "1032": "Ġ18.6",
    "1033": "Ġ12.0",
    "1034": "Ġ13.7",
    "1035": "Ġ16.0",
    "1036": "Ġ17.2",
    "1037": "1-11:",
    "1038": "Ġ80",
    "1039": "Ġ13.9",
    "1040": "1-05:",
    "1041": "1-25:",
    "1042": "2-05:",
    "1043": "Ġ16.5",
    "1044": "Ġ86",
    "1045": "Ġ5:3",
    "1046": "1-03:",
    "1047": "Ġ16.4",
    "1048": "Ġ15.4",
    "1049": "Ġ18.7",
    "1050": "2-28:",
    "1051": "Ġ85",
    "1052": "Ġ18.0",
    "1053": "Ġ93",
    "1054": "Ġ19.6",
    "1055": "Ġ15.0",
    "1056": "1-28:",
    "1057": "Ġ13.5",
    "1058": "1-14:",
    "1059": "Ġ9:48/mi,",
    "1060": "1-12:",
    "1061": "2-11:",
    "1062": "2-15:",
    "1063": "Ġ113",
    "1064": "1-23:",
    "1065": "Ġ6:43/mi,",
    "1066": "2-09:",
    "1067": "Ġ105",
    "1068": "Ġ16.2",
    "1069": "Ġ14.1",
    "1070": "Ġ83",
    "1071": "Ġ7:19/mi,",
    "1072": "2-13:",
    "1073": "Ġ91",
    "1074": "Ġ89",
    "1075": "Ġ88",
    "1076": "Ġ90",
    "1077": "Ġ18.4",
    "1078": "Ġ14.4",
    "1079": "Ġ12.8",
    "1080": "1-01:",
    "1081": "Ġ7:05/mi,",
    "1082": "2-12:",
    "1083": "Ġ19.0",
    "1084": "Ġ106",
    "1085": "Ġ115",
    "1086": "Ġ119",
    "1087": "Ġ17.5",
    "1088": "Ġ14.6",
    "1089": "Ġ19.3",
    "1090": "ĠBo",
    "1091": "ĠBost",
    "1092": "ĠBoston",
    "1093": "Ġ11:11/mi,",
    "1094": "1-29:",
    "1095": "Ġ6:45/mi,",
    "1096": "Ġ14.5",
    "1097": "2-19:",
    "1098": "2-21:",
    "1099": "Ġ7:04/mi,",
    "1100": "Ġ15.6",
    "1101": "Ġ18.5",
    "1102": "Ġ12.5",
    "1103": "Ġ13.8",
    "1104": "Ġhal",
    "1105": "Ġhalf",
    "1106": "1-16:",
    "1107": "1-30:",
    "1108": "2-23:",
    "1109": "Ġ114",
    "1110": "2-02:",
    "1111": "1-18:",
    "1112": "Ġ107",
    "1113": "Ġ6:52/mi,",
    "1114": "Ġ6:54/mi,",
    "1115": "2-18:",
    "1116": "2-26:",
    "1117": "Ġ16.6",
    "1118": "Ġ12.6",
    "1119": "1-08:",
    "1120": "1-19:",
    "1121": "Ġ13.2",
    "1122": "1-27:",
    "1123": "2-04:",
    "1124": "2-17:",
    "1125": "2-27:",
    "1126": "Ġ109",
    "1127": "Ġ7:00/mi,",
    "1128": "Ġ94",
    "1129": "1-22:",
    "1130": "2-16:",
    "1131": "Ġ17.0",
    "1132": "Ġ16.7",
    "1133": "Ġ11:13/mi,",
    "1134": "Ġ15.3",
    "1135": "2-20:",
    "1136": "2-22:",
    "1137": "Ġ10:55/mi,",
    "1138": "Ġ6:57/mi,",
    "1139": "Ġ7:10/mi,",
    "1140": "1-17:",
    "1141": "2-07:",
    "1142": "Ġ11:19/mi,",
    "1143": "Ġ6:55/mi,",
    "1144": "Ġ19.9",
    "1145": "1-02:",
    "1146": "1-24:",
    "1147": "2-03:",
    "1148": "2-08:",
    "1149": "Ġ10:01/mi,",
    "1150": "Ġ17.6",
    "1151": "Ġ13.4",
    "1152": "1-09:",
    "1153": "Ġ11:16/mi,",
    "1154": "Ġ14.2",
    "1155": "Ġ100",
    "1156": "Ġ7:07/mi,",
    "1157": "Ġ18.9",
    "1158": "Ġ101",
    "1159": "Ġ17.7",
    "1160": "Ġ17.3",
    "1161": "2-14:",
    "1162": "Ġ9:58/mi,",
    "1163": "Ġ6:39/mi,",
    "1164": "Ġ7:16/mi,",
    "1165": "Ġ10:05/mi,",
    "1166": "Ġ15.7",
    "1167": "1-10:",
    "1168": "Ġ11:00/mi,",
    "1169": "Ġ17.4",
    "1170": "Ġ12.2",
    "1171": "Ġ19.5",
    "1172": "Ġ12.3",
    "1173": "Ġ35,",
    "1174": "1-06:",
    "1175": "Ġ7:17/mi,",
    "1176": "2-24:",
    "1177": "Ġ7:15/mi,",
    "1178": "Ġ6:50/mi,",
    "1179": "Ġ9:26/mi,",
    "1180": "1-07:",
    "1181": "Ġ15.9",
    "1182": "Ġ6:49/mi,",
    "1183": "Ġ11:05/mi,",
    "1184": "Ġ6:58/mi,",
    "1185": "Ġ13.0",
    "1186": "1-15:",
    "1187": "1-21:",
    "1188": "Ġ104",
    "1189": "2-06:",
    "1190": "Ġ102",
    "1191": "Ġ15.5",
    "1192": "Ġ18.8",
    "1193": "Ġ10:20/mi,",
    "1194": "Ġ9:52/mi,",
    "1195": "Ġ17.9",
    "1196": "Ġ19.7",
    "1197": "Ġ51,",
    "1198": "Ġ15,",
    "1199": "Ġ9:46/mi,",
    "1200": "Ġ7:13/mi,",
    "1201": "2-10:",
    "1202": "Ġ7:25/mi,",
    "1203": "Ġ6:37/mi,",
    "1204": "Ġ7:28/mi,",
    "1205": "Ġ9:34/mi,",
    "1206": "Ġ11:25/mi,",
    "1207": "Ġ2.6",
    "1208": "Ġ12.9",
    "1209": "Ġ9:33/mi,",
    "1210": "Ġ9:49/mi,",
    "1211": "Ġ6:46/mi,",
    "1212": "Ġ11:22/mi,",
    "1213": "Ġ26,",
    "1214": "1-13:",
    "1215": "Ġ103",
    "1216": "2-25:",
    "1217": "Ġ7:52/mi,",
    "1218": "Ġ18.3",
    "1219": "Ġ10:58/mi,",
    "1220": "Ġ19.2",
    "1221": "Ġ6:35/mi,",
    "1222": "Ġ7:02/mi,",
    "1223": "Ġ7:27/mi,",
    "1224": "Ġ9:45/mi,",
    "1225": "Ġ2.4",
    "1226": "Ġ11:18/mi,",
    "1227": "Ġ9:25/mi,",
    "1228": "Ġ6:16/mi,",
    "1229": "Ġ10:54/mi,",
    "1230": "Ġ10:43/mi,",
    "1231": "Ġ7:12/mi,",
    "1232": "Ġ6:31/mi,",
    "1233": "Ġ12,",
    "1234": "Ġ33,",
    "1235": "Ġ12:2",
    "1236": "Ġ9:35/mi,",
    "1237": "Ġ12.7",
    "1238": "Ġ6:30/mi,",
    "1239": "Ġ10:24/mi,",
    "1240": "Ġ6:42/mi,",
    "1241": "Ġ2.1",
    "1242": "Ġ9:50/mi,",
    "1243": "Ġ6:34/mi,",
    "1244": "1-04:",
    "1245": "Ġ2.8",
    "1246": "Ġ6:32/mi,",
    "1247": "Ġ111",
    "1248": "Ġ10:40/mi,",
    "1249": "Ġ13.3",
    "1250": "Ġ6:28/mi,",
    "1251": "Ġ10:13/mi,",
    "1252": "2-01:",
    "1253": "Ġ11:09/mi,",
    "1254": "Ġ108",
    "1255": "Ġ6:47/mi,",
    "1256": "Ġ9:40/mi,",
    "1257": "Ġ11:35/mi,",
    "1258": "Ġ7:31/mi,",
    "1259": "Ġ6:40/mi,",
    "1260": "Ġ10:39/mi,",
    "1261": "Ġ7:32/mi,",
    "1262": "Ġ11:20/mi,",
    "1263": "Ġ92",
    "1264": "Ġ18,",
    "1265": "Ġ10,",
    "1266": "Ġ43,",
    "1267": "Ġ39,",
    "1268": "ĠNe",
    "1269": "ĠNew",
    "1270": "ĠY",
    "1271": "ĠYork",
    "1272": "Ġ11:15/mi,",
    "1273": "Ġ7:34/mi,",
    "1274": "Ġ9:55/mi,",
    "1275": "Ġ7:35/mi,",
    "1276": "Ġ10:35/mi,",
    "1277": "Ġ12:3",
    "1278": "Ġ10:28/mi,",
    "1279": "Ġ7:22/mi,",
    "1280": "Ġ87",
    "1281": "Ġ11:41/mi,",
    "1282": "Ġ7:09/mi,",
    "1283": "Ġ10:03/mi,",
    "1284": "Ġ7:20/mi,",
    "1285": "Ġ9:18/mi,",
    "1286": "Ġ2041-1",
    "1287": "Ġ2060-1",
    "1288": "Ġ13,",
    "1289": "Ġ6,",
    "1290": "Ġ7:37/mi,",
    "1291": "Ġ112",
    "1292": "Ġ10:37/mi,",
    "1293": "Ġ11:10/mi,",
    "1294": "Ġ11:03/mi,",
    "1295": "Ġ2.9",
    "1296": "1-26:",
    "1297": "Ġ96",
    "1298": "Ġ9:20/mi,",
    "1299": "Ġ2.7",
    "1300": "Ġ2033-1",
    "1301": "Ġ20,",
    "1302": "Ġ29,",
    "1303": "Ġ11,",
    "1304": "Ġ31,",
    "1305": "Ġ9:54/mi,",
    "1306": "Ġ8:11/mi,",
    "1307": "Ġ10:33/mi,",
    "1308": "Ġ9:05/mi,",
    "1309": "Ġ9:00/mi,",
    "1310": "Ġ98",
    "1311": "Ġ9:24/mi,",
    "1312": "Ġ9:09/mi,",
    "1313": "Ġ2021-1",
    "1314": "Ġ8:01/mi,",
    "1315": "Ġ10:07/mi,",
    "1316": "Ġ2037-1",
    "1317": "Ġ2064-1",
    "1318": "Ġ24,",
    "1319": "Ġ4,",
    "1320": "Ġ38,",
    "1321": "Ġ97",
    "1322": "Ġ7:50/mi,",
    "1323": "Ġ10:00/mi,",
    "1324": "Ġ2.2",
    "1325": "Ġ8:07/mi,",
    "1326": "Ġ9:56/mi,",
    "1327": "Ġ2024-1",
    "1328": "Ġ16.3",
    "1329": "Ġ2045-1",
    "1330": "Ġ17,",
    "1331": "Ġsub-3",
    "1332": "Ġ41,",
    "1333": "Ġ8:33/mi,",
    "1334": "Ġ9:39/mi,",
    "1335": "Ġ2.0",
    "1336": "Ġ10:16/mi,",
    "1337": "Ġ9:31/mi,",
    "1338": "Ġ8:22/mi,",
    "1339": "Ġ10:34/mi,",
    "1340": "Ġ11:04/mi,",
    "1341": "Ġ2023-1",
    "1342": "Ġ2028-1",
    "1343": "Ġ2034-1",
    "1344": "Ġ2051-1",
    "1345": "Ġ2058-1",
    "1346": "Ġ1,",
    "1347": "Ġ47,",
    "1348": "Ġ19,",
    "1349": "Ġ10:19/mi,",
    "1350": "Ġ9:04/mi,",
    "1351": "8-30:",
    "1352": "Ġ11:24/mi,",
    "1353": "Ġ11:46/mi,",
    "1354": "Ġ7:24/mi,",
    "1355": "Ġ6:25/mi,",
    "1356": "Ġ99",
    "1357": "Ġ2036-1",
    "1358": "Ġ2044-1",
    "1359": "Ġ2046-1",
    "1360": "Ġ2047-1",
    "1361": "Ġ2050-1",
    "1362": "Ġ23,",
    "1363": "Ġ37,",
    "1364": "Ġ50,",
    "1365": "Ġfir",
    "1366": "Ġfirst",
    "1367": "Ġ9:37/mi,",
    "1368": "Ġ9:30/mi,",
    "1369": "Ġ10:46/mi,",
    "1370": "Ġ10:09/mi,",
    "1371": "Ġ11:07/mi,",
    "1372": "Ġ11:30/mi,",
    "1373": "Ġ6:27/mi,",
    "1374": "Ġ10:04/mi,",
    "1375": "Ġ7:40/mi,",
    "1376": "Ġ2026-1",
    "1377": "Ġ2030-1",
    "1378": "Ġ2031-1",
    "1379": "Ġ2035-1",
    "1380": "Ġ2038-1",
    "1381": "Ġ2042-1",
    "1382": "Ġ2053-1",
    "1383": "Ġ2062-1",
    "1384": "Ġ30,",
    "1385": "ĠCh",
    "1386": "ĠChi",
    "1387": "ĠChic",
    "1388": "ĠChicag",
    "1389": "ĠChicago",
    "1390": "Ġ3,",
    "1391": "Ġ7,",
    "1392": "Ġ5,",
    "1393": "Ġ10:10/mi,",
    "1394": "Ġ11:39/mi,",
    "1395": "4-21:",
    "1396": "Ġ11:01/mi,",
    "1397": "Ġ10:26/mi,",
    "1398": "Ġ8:00/mi,",
    "1399": "Ġ8:39/mi,",
    "1400": "Ġ8:03/mi,",
    "1401": "Ġ10:30/mi,",
    "1402": "Ġ2.3",
    "1403": "Ġ9:07/mi,",
    "1404": "Ġ8:54/mi,",
    "1405": "Ġ2025-1",
    "1406": "Ġ6:19/mi,",
    "1407": "Ġ20.0",
    "1408": "Ġ2027-1",
    "1409": "Ġ2056-1",
    "1410": "Ġ2059-1",
    "1411": "Ġ40,",
    "1412": "Ġ8,",
    "1413": "Ġloc",
    "1414": "Ġlocal",
    "1415": "Ġ10K.",
    "1416": "Ġ2.5",
    "1417": "Ġ9:22/mi,",
    "1418": "Ġ11:34/mi,",
    "1419": "Ġ186",
    "1420": "Ġ9:15/mi,",
    "1421": "Ġ11:48/mi,",
    "1422": "Ġ7:55/mi,",
    "1423": "Ġ9:41/mi,",
    "1424": "Ġ9:28/mi,",
    "1425": "Ġ10:56/mi,",
    "1426": "Ġ2029-1",
    "1427": "Ġ2043-1",
    "1428": "Ġ2049-1",
    "1429": "Ġ45,",
    "1430": "Ġ49,",
    "1431": "Ġ46,",
    "1432": "Ġ52,",
    "1433": "4-11:",
    "1434": "5-24:",
    "1435": "0-10-2",
    "1436": "Ġ2020-1",
    "1437": "Ġ10:49/mi,",
    "1438": "5-27:",
    "1439": "Ġ11:28/mi,",
    "1440": "Ġ8:04/mi,",
    "1441": "Ġ9:16/mi,",
    "1442": "Ġ10:45/mi,",
    "1443": "Ġ2032-1",
    "1444": "Ġ2039-1",
    "1445": "Ġ2052-1",
    "1446": "Ġ2055-1",
    "1447": "Ġ2057-1",
    "1448": "Ġst",
    "1449": "Ġsta",
    "1450": "Ġstay",
    "1451": "Ġstaying",
    "1452": "Ġcon",
    "1453": "Ġcons",
    "1454": "Ġconsis",
    "1455": "Ġconsist",
    "1456": "Ġconsiste",
    "1457": "Ġconsisten",
    "1458": "Ġconsistent.",
    "1459": "Ġ44,",
    "1460": "Ġ48,",
    "1461": "3-06:",
    "1462": "3-30:",
    "1463": "4-02:",
    "1464": "4-15:",
    "1465": "5-16:",
    "1466": "5-30:",
    "1467": "6-24:",
    "1468": "6-27:",
    "1469": "6-28:",
    "1470": "6-30:",
    "1471": "7-25:",
    "1472": "Ġ10:48/mi,",
    "1473": "9-09:",
    "1474": "Ġ8:35/mi,",
    "1475": "Ġ8:43/mi,",
    "1476": "Ġ11:26/mi,",
    "1477": "Ġ7:45/mi,",
    "1478": "Ġ2040-1",
    "1479": "Ġ2061-1",
    "1480": "Ġ36,",
    "1481": "Ġ9,",
    "1482": "Ġ2,",
    "1483": "Ġsub-",
    "1484": "Ġsub-4",
    "1485": "Ġ27,",
    "1486": "Ġ6:24/mi,",
    "1487": "Ġ7:43/mi,",
    "1488": "Ġ11:06/mi,",
    "1489": "5-05:",
    "1490": "5-10:",
    "1491": "6-12:",
    "1492": "7-02:",
    "1493": "7-09:",
    "1494": "8-16:",
    "1495": "8-24:",
    "1496": "Ġ8:58/mi,",
    "1497": "9-17:",
    "1498": "Ġ10:41/mi,",
    "1499": "9-30:",
    "1500": "-10-30:",
    "1501": "Ġ9:19/mi,",
    "1502": "3-17:",
    "1503": "3-22:",
    "1504": "7-23:",
    "1505": "Ġ10:50/mi,",
    "1506": "1-10-2",
    "1507": "Ġ6:17/mi,",
    "1508": "Ġ10:22/mi,",
    "1509": "Ġ6:53/mi,",
    "1510": "Ġ8:18/mi,",
    "1511": "Ġ188",
    "1512": "Ġ10:11/mi,",
    "1513": "8-01:",
    "1514": "Ġ11:31/mi,",
    "1515": "Ġ2054-1",
    "1516": "Ġ2063-1",
    "1517": "Ġ21,",
    "1518": "Ġ42,",
    "1519": "1-31:",
    "1520": "Ġ8:48/mi,",
    "1521": "Ġ7:46/mi,",
    "1522": "5-31:",
    "1523": "Ġ11:40/mi,",
    "1524": "Ġ9:11/mi,",
    "1525": "Ġ8:55/mi,",
    "1526": "9-16:",
    "1527": "9-22:",
    "1528": "9-29:",
    "1529": "Ġ5:2",
    "1530": "Ġ10:52/mi,",
    "1531": "-10-16:",
    "1532": "Ġ10:18/mi,",
    "1533": "4-05:",
    "1534": "Ġ8:45/mi,",
    "1535": "9-18:",
    "1536": "Ġ9:43/mi,",
    "1537": "Ġ8:10/mi,",
    "1538": "2-31:",
    "1539": "Ġ7:39/mi,",
    "1540": "Ġ11:33/mi,",
    "1541": "Ġ6:10/mi,",
    "1542": "Ġ7:54/mi,",
    "1543": "5-28:",
    "1544": "Ġ7:49/mi,",
    "1545": "Ġ2022-1",
    "1546": "4-10-2",
    "1547": "Ġ25,",
    "1548": "Ġ16,",
    "1549": "Ġ6:22/mi,",
    "1550": "Ġ6:15/mi,",
    "1551": "Ġ7:47/mi,",
    "1552": "3-15:",
    "1553": "3-21:",
    "1554": "Ġ7:58/mi,",
    "1555": "5-14:",
    "1556": "5-21:",
    "1557": "6-09:",
    "1558": "7-05:",
    "1559": "7-15:",
    "1560": "7-22:",
    "1561": "8-22:",
    "1562": "8-28:",
    "1563": "9-28:",
    "1564": "-10-03:",
    "1565": "-10-04:",
    "1566": "-10-11:",
    "1567": "-10-15:",
    "1568": "Ġ8:25/mi,",
    "1569": "3-20:",
    "1570": "5-07:",
    "1571": "7-08:",
    "1572": "7-17:",
    "1573": "Ġ11:08/mi,",
    "1574": "Ġ8:05/mi,",
    "1575": "4-23:",
    "1576": "5-02:",
    "1577": "2-10-2",
    "1578": "3-10-2",
    "1579": "Ġ2048-1",
    "1580": "3-10:",
    "1581": "3-14:",
    "1582": "Ġ10:25/mi,",
    "1583": "4-22:",
    "1584": "5-04:",
    "1585": "5-12:",
    "1586": "Ġ9:03/mi,",
    "1587": "Ġ8:26/mi,",
    "1588": "7-30:",
    "1589": "Ġ187",
    "1590": "8-08:",
    "1591": "Ġ9:13/mi,",
    "1592": "9-01:",
    "1593": "-10-10:",
    "1594": "Ġ6:56/mi,",
    "1595": "Ġ11:43/mi,",
    "1596": "3-12:",
    "1597": "3-31:",
    "1598": "4-25:",
    "1599": "6-10:",
    "1600": "Ġ8:41/mi,",
    "1601": "Ġ7:51/mi,",
    "1602": "8-06:",
    "1603": "9-04:",
    "1604": "9-06:",
    "1605": "9-23:",
    "1606": "Ġ7:14/mi,",
    "1607": "8-10:",
    "1608": "7-29:",
    "1609": "8-14:",
    "1610": "Ġu",
    "1611": "Ġul",
    "1612": "Ġult",
    "1613": "Ġultra",
    "1614": "Ġultram",
    "1615": "Ġultramarathon.",
    "1616": "ĠPR",
    "1617": "ĠPR.",
    "1618": "Ġ10:15/mi,",
    "1619": "Ġ11:23/mi,",
    "1620": "2-29:",
    "1621": "3-05:",
    "1622": "3-08:",
    "1623": "3-13:",
    "1624": "3-18:",
    "1625": "3-26:",
    "1626": "4-04:",
    "1627": "4-06:",
    "1628": "4-09:",
    "1629": "4-17:",
    "1630": "4-19:",
    "1631": "4-24:",
    "1632": "4-29:",
    "1633": "5-01:",
    "1634": "Ġ8:50/mi,",
    "1635": "5-13:",
    "1636": "5-23:",
    "1637": "5-29:",
    "1638": "6-02:",
    "1639": "6-03:",
    "1640": "6-06:",
    "1641": "6-14:",
    "1642": "7-04:",
    "1643": "7-07:",
    "1644": "7-14:",
    "1645": "8-03:",
    "1646": "8-09:",
    "1647": "8-13:",
    "1648": "8-26:",
    "1649": "8-29:",
    "1650": "9-13:",
    "1651": "-10-18:",
    "1652": "Ġ11:37/mi,",
    "1653": "Ġ8:52/mi,",
    "1654": "3-27:",
    "1655": "Ġ8:49/mi,",
    "1656": "Ġ10:31/mi,",
    "1657": "6-08:",
    "1658": "9-19:",
    "1659": "-10-13:",
    "1660": "Ġ11:45/mi,",
    "1661": "Ġ6:13/mi,",
    "1662": "3-01:",
    "1663": "3-09:",
    "1664": "4-12:",
    "1665": "7-01:",
    "1666": "8-02:",
    "1667": "9-11:",
    "1668": "-10-08:",
    "1669": "Ġ8:15/mi,",
    "1670": "ĠBer",
    "1671": "ĠBerl",
    "1672": "ĠBerlin",
    "1673": "Ġ28,",
    "1674": "Ġ14,",
    "1675": "Ġq",
    "1676": "Ġqu",
    "1677": "Ġqual",
    "1678": "Ġquali",
    "1679": "Ġqualif",
    "1680": "Ġqualifi",
    "1681": "Ġqualifier",
    "1682": "Ġqualifier.",
    "1683": "Ġ10:47/mi,",
    "1684": "3-11:",
    "1685": "3-28:",
    "1686": "4-07:",
    "1687": "Ġ8:16/mi,",
    "1688": "5-18:",
    "1689": "5-25:",
    "1690": "6-01:",
    "1691": "Ġ11:29/mi,",
    "1692": "6-19:",
    "1693": "7-18:",
    "1694": "7-21:",
    "1695": "7-28:",
    "1696": "9-25:",
    "1697": "Ġ189",
    "1698": "Ġ8:09/mi,",
    "1699": "Ġ7:42/mi,",
    "1700": "4-18:",
    "1701": "Ġ9:10/mi,",
    "1702": "6-16:",
    "1703": "6-22:",
    "1704": "6-26:",
    "1705": "7-03:",
    "1706": "7-12:",
    "1707": "7-19:",
    "1708": "9-03:",
    "1709": "-10-01:",
    "1710": "-10-05:",
    "1711": "-10-19:",
    "1712": "Ġ11:12/mi,",
    "1713": "Ġ6:20/mi,",
    "1714": "Ġ8:20/mi,",
    "1715": "6-18:",
    "1716": "5-19:",
    "1717": "8-04:",
    "1718": "Ġ8:19/mi,",
    "1719": "Ġbas",
    "1720": "Ġbase",
    "1721": "Ġbu",
    "1722": "Ġbuil",
    "1723": "Ġbuild",
    "1724": "Ġbuilding",
    "1725": "Ġbuilding.",
    "1726": "Ġ32,",
    "1727": "5-26:",
    "1728": "7-11:",
    "1729": "7-31:",
    "1730": "8-25:",
    "1731": "9-14:",
    "1732": "-10-07:",
    "1733": "Ġ197",
    "1734": "Ġ6:09/mi,",
    "1735": "Ġ8:37/mi,",
    "1736": "3-24:",
    "1737": "Ġ10:51/mi,",
    "1738": "4-30:",
    "1739": "3-04:",
    "1740": "6-15:",
    "1741": "8-07:",
    "1742": "9-26:",
    "1743": "Ġ6:12/mi,",
    "1744": "Ġ8:40/mi,",
    "1745": "6-25:",
    "1746": "6-10-2",
    "1747": "3-03:",
    "1748": "3-07:",
    "1749": "3-23:",
    "1750": "3-25:",
    "1751": "4-27:",
    "1752": "4-28:",
    "1753": "Ġ8:46/mi,",
    "1754": "6-17:",
    "1755": "Ġ7:08/mi,",
    "1756": "7-20:",
    "1757": "7-26:",
    "1758": "8-12:",
    "1759": "8-23:",
    "1760": "9-24:",
    "1761": "-10-12:",
    "1762": "Ġ7:23/mi,",
    "1763": "Ġ11:50/mi,",
    "1764": "4-16:",
    "1765": "Ġ9:38/mi,",
    "1766": "6-04:",
    "1767": "6-05:",
    "1768": "Ġ8:27/mi,",
    "1769": "7-06:",
    "1770": "Ġ8:31/mi,",
    "1771": "9-21:",
    "1772": "-10-02:",
    "1773": "-10-17:",
    "1774": "Ġ7:06/mi,",
    "1775": "5-09:",
    "1776": "9-07:",
    "1777": "9-15:",
    "1778": "8-27:",
    "1779": "Ġ8:30/mi,",
    "1780": "4-13:",
    "1781": "Ġ34,",
    "1782": "Ġ22,",
    "1783": "3-19:",
    "1784": "3-29:",
    "1785": "4-03:",
    "1786": "5-06:",
    "1787": "6-21:",
    "1788": "Ġ10:38/mi,",
    "1789": "Ġ8:56/mi,",
    "1790": "8-18:",
    "1791": "9-05:",
    "1792": "9-20:",
    "1793": "Ġ7:59/mi,",
    "1794": "2-30:",
    "1795": "4-01:",
    "1796": "4-10:",
    "1797": "5-03:",
    "1798": "6-20:",
    "1799": "6-23:",
    "1800": "Ġ6:02/mi,",
    "1801": "8-11:",
    "1802": "Ġ9:01/mi,",
    "1803": "Ġ193",
    "1804": "4-08:",
    "1805": "Ġ7:18/mi,",
    "1806": "Ġ7:29/mi,",
    "1807": "Ġ7:57/mi,",
    "1808": "8-19:",
    "1809": "Ġ4.32",
    "1810": "7-10:",
    "1811": "9-10-2",
    "1812": "5-08:",
    "1813": "5-17:",
    "1814": "Ġ6:11/mi,",
    "1815": "Ġ10:06/mi,",
    "1816": "9-10:",
    "1817": "9-12:",
    "1818": "-10-09:",
    "1819": "Ġ8:34/mi,",
    "1820": "3-02:",
    "1821": "Ġ9:14/mi,",
    "1822": "4-26:",
    "1823": "6-13:",
    "1824": "Ġ11:49/mi,",
    "1825": "Ġ7:33/mi,",
    "1826": "8-20:",
    "1827": "Ġ10:44/mi,",
    "1828": "5-10-2",
    "1829": "7-10-2",
    "1830": "Ġ11:17/mi,",
    "1831": "Ġ9:57/mi,",
    "1832": "Ġ7:03/mi,",
    "1833": "4-14:",
    "1834": "6-29:",
    "1835": "8-21:",
    "1836": "9-08:",
    "1837": "9-27:",
    "1838": "-10-31:",
    "1839": "Ġ11:58/mi,",
    "1840": "Ġ7:11/mi,",
    "1841": "5-11:",
    "1842": "-10-14:",
    "1843": "5-15:",
    "1844": "7-24:",
    "1845": "7-27:",
    "1846": "Ġ8:24/mi,",
    "1847": "Ġ11:27/mi,",
    "1848": "4-20:",
    "1849": "Ġ190",
    "1850": "Ġ9:44/mi,",
    "1851": "Ġ10:27/mi,",
    "1852": "5-22:",
    "1853": "8-10-2",
    "1854": "Ġ17.4mi",
    "1855": "Ġ8:13/mi,",
    "1856": "Ġ6:00/mi,",
    "1857": "Ġ6:33/mi,",
    "1858": "8-05:",
    "1859": "8-15:",
    "1860": "8-17:",
    "1861": "9-02:",
    "1862": "Ġ8:08/mi,",
    "1863": "Ġ11:14/mi,",
    "1864": "Ġ4.45",
    "1865": "Ġ4.29",
    "1866": "6-11:",
    "1867": "Ġ9:51/mi,",
    "1868": "Ġ6:29/mi,",
    "1869": "8-31:",
    "1870": "-10-06:",
    "1871": "Ġ12:4",
    "1872": "Ġ11:02/mi,",
    "1873": "Ġ6:48/mi,",
    "1874": "6-07:",
    "1875": "Ġ9:29/mi,",
    "1876": "Ġ11:21/mi,",
    "1877": "Ġ6:38/mi,",
    "1878": "Ġ6:41/mi,",
    "1879": "Ġ9:36/mi,",
    "1880": "Ġ5.6mi",
    "1881": "Ġ6:59/mi,",
    "1882": "Ġ6:36/mi,",
    "1883": "Ġ8:14/mi,",
    "1884": "Ġ10:59/mi,",
    "1885": "Ġ9:27/mi,",
    "1886": "3-16:",
    "1887": "5-20:",
    "1888": "7-13:",
    "1889": "Ġ10:02/mi,",
    "1890": "Ġ4.49",
    "1891": "Ġ11:38/mi,",
    "1892": "Ġ10:36/mi,",
    "1893": "7-16:",
    "1894": "Ġ4.84",
    "1895": "Ġ8:21/mi,",
    "1896": "Ġ4.96",
    "1897": "Ġ4.81",
    "1898": "Ġ10:32/mi,",
    "1899": "Ġ4.04",
    "1900": "Ġ8:44/mi,",
    "1901": "Ġ7.37",
    "1902": "Ġ9:53/mi,",
    "1903": "Ġ9:32/mi,",
    "1904": "Ġ6:07/mi,",
    "1905": "Ġ200",
    "1906": "Ġ10:14/mi,",
    "1907": "Ġ10:53/mi,",
    "1908": "Ġ10:57/mi,",
    "1909": "Ġ192",
    "1910": "Ġ12:07/mi,",
    "1911": "Ġ8:02/mi,",
    "1912": "Ġ4.82",
    "1913": "Ġ7:38/mi,",
    "1914": "Ġ4.28",
    "1915": "Ġ6:26/mi,",
    "1916": "Ġ4.14",
    "1917": "Ġ7:41/mi,",
    "1918": "Ġ4.71",
    "1919": "Ġ4.91",
    "1920": "Ġ6:21/mi,",
    "1921": "Ġ10:12/mi,",
    "1922": "Ġ50K.",
    "1923": "Ġ6:04/mi,",
    "1924": "Ġ9:08/mi,",
    "1925": "Ġ10:08/mi,",
    "1926": "Ġ6.06",
    "1927": "Ġ11:54/mi,",
    "1928": "Ġ9:06/mi,",
    "1929": "Ġ6:01/mi,",
    "1930": "Ġ9:47/mi,",
    "1931": "Ġ10:17/mi,",
    "1932": "Ġ10:42/mi,",
    "1933": "Ġ4.69",
    "1934": "Ġ198",
    "1935": "Ġ7:36/mi,",
    "1936": "Ġ4.73",
    "1937": "Ġ6:44/mi,",
    "1938": "Ġ12:00/mi,",
    "1939": "Ġ10:23/mi,",
    "1940": "Ġ9:23/mi,",
    "1941": "Ġ11:55/mi,",
    "1942": "Ġ8:28/mi,",
    "1943": "Ġ4.37",
    "1944": "Ġ4.12",
    "1945": "Ġ8:59/mi,",
    "1946": "Ġ9:42/mi,",
    "1947": "Ġ7:48/mi,",
    "1948": "Ġ9:59/mi,",
    "1949": "Ġ8:42/mi,",
    "1950": "Ġ6:18/mi,",
    "1951": "Ġ6.84",
    "1952": "Ġ9:17/mi,",
    "1953": "Ġ11:36/mi,",
    "1954": "Ġ191",
    "1955": "Ġ199",
    "1956": "Ġ9:21/mi,",
    "1957": "Ġ216",
    "1958": "Ġ4.67",
    "1959": "Ġ217",
    "1960": "Ġ2034",
    "1961": "Ġ10.1mi",
    "1962": "Ġ18.7mi",
    "1963": "Ġ9.3mi",
    "1964": "Ġ16.3mi",
    "1965": "Ġ5.3mi",
    "1966": "Ġ15.8mi",
    "1967": "Ġ19.9mi",
    "1968": "Ġ4.1mi",
    "1969": "Ġ6.2mi",
    "1970": "Ġ18.0mi",
    "1971": "Ġ5.24",
    "1972": "Ġ11:57/mi,",
    "1973": "Ġ5.38",
    "1974": "Ġ8.52",
    "1975": "Ġ4.85",
    "1976": "Ġ231",
    "1977": "Ġ194",
    "1978": "Ġ11:52/mi,",
    "1979": "Ġ4.54",
    "1980": "Ġ4.21",
    "1981": "Ġ6:05/mi,",
    "1982": "Ġ7:44/mi,",
    "1983": "Ġ11:32/mi,",
    "1984": "Ġ4.62",
    "1985": "Ġ7.72",
    "1986": "Ġ5.42",
    "1987": "Ġ4.25",
    "1988": "Ġ7.75",
    "1989": "Ġ5:1",
    "1990": "Ġ20.9",
    "1991": "Ġ2027",
    "1992": "Ġ4.38",
    "1993": "Ġ2043",
    "1994": "Ġ14.2mi",
    "1995": "Ġ14.8mi",
    "1996": "Ġ8.2mi",
    "1997": "Ġ9.2mi",
    "1998": "Ġ17.6mi",
    "1999": "Ġ9.8mi",
    "2000": "Ġ13.2mi",
    "2001": "Ġ19.7mi",
    "2002": "Ġ21.1",
    "2003": "Ġ8:32/mi,",
    "2004": "Ġ4.89",
    "2005": "Ġ4.02",
    "2006": "Ġ10.42",
    "2007": "Ġ6.15",
    "2008": "Ġ201",
    "2009": "Ġ5.04",
    "2010": "Ġ20.1",
    "2011": "Ġ7:21/mi,",
    "2012": "Ġ11.61",
    "2013": "Ġ10:29/mi,",
    "2014": "Ġ209",
    "2015": "Ġ4.98",
    "2016": "Ġ4.17",
    "2017": "Ġ20.6",
    "2018": "Ġ7:26/mi,",
    "2019": "Ġ7:56/mi,",
    "2020": "Ġ7.15",
    "2021": "Ġ4.51",
    "2022": "Ġ11:47/mi,",
    "2023": "Ġ11:56/mi,",
    "2024": "Ġ2022",
    "2025": "Ġ4.88",
    "2026": "Ġ9:02/mi,",
    "2027": "Ġ6.17",
    "2028": "Ġ11:44/mi,",
    "2029": "Ġ5.55",
    "2030": "Ġ4.52",
    "2031": "Ġ5:52/mi,",
    "2032": "Ġ5.37",
    "2033": "Ġ7.83",
    "2034": "Ġ215",
    "2035": "Ġ229",
    "2036": "Ġ12:04/mi,",
    "2037": "Ġ5.72",
    "2038": "Ġ2040",
    "2039": "Ġ2061",
    "2040": "Ġ6.6mi",
    "2041": "Ġ7:00",
    "2042": "Ġ5.0mi",
    "2043": "Ġ11.4mi",
    "2044": "Ġ15.2mi",
    "2045": "Ġ9.6mi",
    "2046": "Ġ7:22/mi.",
    "2047": "Ġ9:43/mi.",
    "2048": "Ġ16.2mi",
    "2049": "Ġ4.6mi",
    "2050": "Ġ11:31/mi.",
    "2051": "Ġ16.4mi",
    "2052": "Ġ19.4mi",
    "2053": "Ġ17.7mi",
    "2054": "Ġ18.6mi",
    "2055": "Ġ4.23",
    "2056": "Ġ7.85",
    "2057": "Ġ4.78",
    "2058": "Ġ11.29",
    "2059": "Ġ4.72",
    "2060": "Ġ4.99",
    "2061": "Ġ10:21/mi,",
    "2062": "Ġ8:57/mi,",
    "2063": "Ġ5.87",
    "2064": "Ġ11:42/mi,",
    "2065": "Ġ8:12/mi,",
    "2066": "Ġ12:03/mi,",
    "2067": "Ġ11.27",
    "2068": "Ġ5.35",
    "2069": "Ġ10.07",
    "2070": "Ġ20.3",
    "2071": "Ġ4.87",
    "2072": "Ġ4.92",
    "2073": "Ġ7.91",
    "2074": "Ġ2.87",
    "2075": "Ġ7.81",
    "2076": "Ġ208",
    "2077": "Ġ6.88",
    "2078": "Ġ9.46",
    "2079": "Ġ211",
    "2080": "Ġ4.47",
    "2081": "Ġ6:23/mi,",
    "2082": "Ġ4.93",
    "2083": "Ġ6.65",
    "2084": "Ġ6.59",
    "2085": "Ġ7.89",
    "2086": "Ġ5.63",
    "2087": "Ġ2026",
    "2088": "Ġ5:57/mi,",
    "2089": "Ġ6.57",
    "2090": "Ġ6.05",
    "2091": "Ġ2033",
    "2092": "Ġ196",
    "2093": "Ġ2054",
    "2094": "Ġ2055",
    "2095": "Ġ2064",
    "2096": "Ġ11:00/mi.",
    "2097": "Ġ10.9mi",
    "2098": "Ġ5.1mi",
    "2099": "Ġ19.1mi",
    "2100": "Ġ7:00.",
    "2101": "Ġ7:10",
    "2102": "Ġ9.1mi",
    "2103": "Ġ15.0mi",
    "2104": "Ġ13.6mi",
    "2105": "Ġ14.0mi",
    "2106": "Ġ18.8mi",
    "2107": "Ġ12.9mi",
    "2108": "Ġ10.5mi",
    "2109": "Ġ12.3mi",
    "2110": "Ġ19.0mi",
    "2111": "Ġ18.5mi",
    "2112": "Ġ7.4mi",
    "2113": "Ġ18.2mi",
    "2114": "Ġ9.0mi",
    "2115": "Ġ5:59/mi,",
    "2116": "Ġ10.43",
    "2117": "Ġ4.58",
    "2118": "Ġ6:06/mi,",
    "2119": "Ġ5:42/mi,",
    "2120": "Ġ20.7",
    "2121": "Ġ4.39",
    "2122": "Ġ8:06/mi,",
    "2123": "Ġ6.56",
    "2124": "Ġ21.4",
    "2125": "Ġ6.35",
    "2126": "Ġ10.89",
    "2127": "Ġ7.41",
    "2128": "Ġ6.63",
    "2129": "Ġ6.77",
    "2130": "Ġ11.16",
    "2131": "Ġ7.29",
    "2132": "Ġ6:51/mi,",
    "2133": "Ġ6:14/mi,",
    "2134": "Ġ4.33",
    "2135": "Ġ4.48",
    "2136": "Ġ5.76",
    "2137": "Ġ5.89",
    "2138": "Ġ5:43/mi,",
    "2139": "Ġ4.76",
    "2140": "Ġ7.52",
    "2141": "Ġ5.33",
    "2142": "Ġ6.82",
    "2143": "Ġ6.19",
    "2144": "Ġ4.03",
    "2145": "Ġ6.95",
    "2146": "Ġ4.35",
    "2147": "Ġ4.16",
    "2148": "Ġ4.18",
    "2149": "Ġ7.63",
    "2150": "Ġ7.54",
    "2151": "Ġ8.62",
    "2152": "Ġ9:12/mi,",
    "2153": "Ġ4.79",
    "2154": "Ġ6.02",
    "2155": "Ġ6:08/mi,",
    "2156": "Ġ5.71",
    "2157": "Ġ4.94",
    "2158": "Ġ10.09",
    "2159": "Ġ5.99",
    "2160": "Ġ6.18",
    "2161": "Ġ7.74",
    "2162": "Ġ5.94",
    "2163": "Ġ2028",
    "2164": "Ġ8:51/mi,",
    "2165": "Ġ2029",
    "2166": "Ġ2030",
    "2167": "Ġ7.27",
    "2168": "Ġ214",
    "2169": "Ġ2036",
    "2170": "Ġ2037",
    "2171": "Ġ2039",
    "2172": "Ġ2041",
    "2173": "Ġ2045",
    "2174": "Ġ2048",
    "2175": "Ġ2050",
    "2176": "Ġ2057",
    "2177": "Ġ19.6mi",
    "2178": "Ġ6:50/mi.",
    "2179": "Ġ14.6mi",
    "2180": "Ġ6:57/mi.",
    "2181": "Ġ6.3mi",
    "2182": "Ġ6:43.",
    "2183": "Ġ7:20.",
    "2184": "Ġ7.9mi",
    "2185": "Ġ18.4mi",
    "2186": "Ġ14.7mi",
    "2187": "Ġ19.3mi",
    "2188": "Ġ13.7mi",
    "2189": "Ġ10.6mi",
    "2190": "Ġ7:07.",
    "2191": "Ġ9:54.",
    "2192": "Ġ13.9mi",
    "2193": "Ġ15.9mi",
    "2194": "Ġ10.4mi",
    "2195": "Ġ9.4mi",
    "2196": "Ġ5.17",
    "2197": "Ġ210",
    "2198": "Ġ195",
    "2199": "Ġ6.58",
    "2200": "Ġ8:36/mi,",
    "2201": "Ġ12:09/mi,",
    "2202": "Ġ6.62",
    "2203": "Ġ12:15/mi,",
    "2204": "Ġ5.49",
    "2205": "Ġ10.73",
    "2206": "Ġ2020",
    "2207": "Ġ7.21",
    "2208": "Ġ6.31",
    "2209": "Ġ230",
    "2210": "Ġ5:47/mi,",
    "2211": "Ġ4.64",
    "2212": "Ġ12:05/mi,",
    "2213": "Ġ5.05",
    "2214": "Ġ20.4",
    "2215": "Ġ220",
    "2216": "Ġ5.36",
    "2217": "Ġ5.82",
    "2218": "Ġ4.77",
    "2219": "Ġ2021",
    "2220": "Ġ4.61",
    "2221": "Ġ7.34",
    "2222": "Ġ4.08",
    "2223": "Ġ6.29",
    "2224": "Ġ10.15",
    "2225": "Ġ5.74",
    "2226": "Ġ243",
    "2227": "Ġ5.88",
    "2228": "Ġ4.74",
    "2229": "Ġ7.13",
    "2230": "Ġ11.74",
    "2231": "Ġ11.11",
    "2232": "Ġ4.27",
    "2233": "Ġ6.74",
    "2234": "Ġ6.21",
    "2235": "Ġ2023",
    "2236": "Ġ8:17/mi,",
    "2237": "Ġ6.26",
    "2238": "Ġ9.83",
    "2239": "Ġ21.2",
    "2240": "Ġ4.19",
    "2241": "Ġ4.41",
    "2242": "Ġ4.07",
    "2243": "Ġ5:55/mi,",
    "2244": "Ġ4.43",
    "2245": "Ġ4.13",
    "2246": "Ġ6.44",
    "2247": "Ġ12:10/mi,",
    "2248": "Ġ5.93",
    "2249": "Ġ11.26",
    "2250": "Ġ4.97",
    "2251": "Ġ219",
    "2252": "Ġ8.13",
    "2253": "Ġ7.68",
    "2254": "Ġ4.86",
    "2255": "Ġ9.97",
    "2256": "Ġ8:53/mi,",
    "2257": "Ġ2035",
    "2258": "Ġ2038",
    "2259": "Ġ2044",
    "2260": "Ġ2046",
    "2261": "Ġ2049",
    "2262": "Ġ2051",
    "2263": "Ġ2059",
    "2264": "Ġ2060",
    "2265": "Ġ2063",
    "2266": "Ġ11:26.",
    "2267": "Ġ9.5mi",
    "2268": "Ġ10.8mi",
    "2269": "Ġ11:28/mi.",
    "2270": "Ġ5.8mi",
    "2271": "Ġ7:02/mi.",
    "2272": "Ġ7:07",
    "2273": "Ġ6:46",
    "2274": "Ġ15.3mi",
    "2275": "Ġ11:09",
    "2276": "Ġ19.5mi",
    "2277": "Ġ13.5mi",
    "2278": "Ġ7:15/mi.",
    "2279": "Ġ5.2mi",
    "2280": "Ġ9:10",
    "2281": "Ġ7:05",
    "2282": "Ġ7:00/mi.",
    "2283": "Ġ15.5mi",
    "2284": "Ġ17.1mi",
    "2285": "Ġ9:26/mi.",
    "2286": "Ġ6:47",
    "2287": "Ġ13.3mi",
    "2288": "Ġ4.4mi",
    "2289": "Ġ9:46.",
    "2290": "Ġ6:49",
    "2291": "Ġ16.0mi",
    "2292": "Ġ15.1mi",
    "2293": "Ġ8.1mi",
    "2294": "Ġ16.7mi",
    "2295": "Ġ6:58/mi.",
    "2296": "Ġ9:39.",
    "2297": "Ġ9:37/mi.",
    "2298": "Ġ10:37/mi.",
    "2299": "Ġ10:18",
    "2300": "Ġ9.9mi",
    "2301": "Ġ14.9mi",
    "2302": "Ġ15.7mi",
    "2303": "Ġ10:58.",
    "2304": "Ġ10:13/mi.",
    "2305": "Ġ8.7mi",
    "2306": "Ġ3.7mi",
    "2307": "Ġ10.25",
    "2308": "Ġ8.86",
    "2309": "Ġ7.69",
    "2310": "Ġ8:23/mi,",
    "2311": "Ġ5.73",
    "2312": "Ġ4.36",
    "2313": "Ġ4.57",
    "2314": "Ġ6.34",
    "2315": "Ġ7.09",
    "2316": "Ġ6.47",
    "2317": "Ġ5.03",
    "2318": "Ġ5.85",
    "2319": "Ġ6.49",
    "2320": "Ġ12:02/mi,",
    "2321": "Ġ10.24",
    "2322": "Ġ4.66",
    "2323": "Ġ21.8",
    "2324": "Ġ10.32",
    "2325": "Ġ10.97",
    "2326": "Ġ7.31",
    "2327": "Ġ12:13/mi,",
    "2328": "Ġ7.18",
    "2329": "Ġ8:38/mi,",
    "2330": "Ġ222",
    "2331": "Ġ6.97",
    "2332": "Ġ6.67",
    "2333": "Ġ7.08",
    "2334": "Ġ7.87",
    "2335": "Ġ10.71",
    "2336": "Ġ5:45/mi,",
    "2337": "Ġ9.58",
    "2338": "Ġ242",
    "2339": "Ġ4.95",
    "2340": "Ġ6.78",
    "2341": "Ġ5.91",
    "2342": "Ġ8.35",
    "2343": "Ġ5.46",
    "2344": "Ġ2024",
    "2345": "Ġ265",
    "2346": "Ġ8.12",
    "2347": "Ġ6.87",
    "2348": "Ġ6.61",
    "2349": "Ġ7.73",
    "2350": "Ġ5.86",
    "2351": "Ġ7.24",
    "2352": "Ġ20.8",
    "2353": "Ġ7:53/mi,",
    "2354": "Ġ5.67",
    "2355": "Ġ10.23",
    "2356": "Ġ5.69",
    "2357": "Ġ7.39",
    "2358": "Ġ6.13",
    "2359": "Ġ10.92",
    "2360": "Ġ7.61",
    "2361": "Ġ2031",
    "2362": "Ġ2032",
    "2363": "Ġ12:11/mi,",
    "2364": "Ġ207",
    "2365": "Ġ224",
    "2366": "Ġ10.55",
    "2367": "Ġ2052",
    "2368": "Ġ2056",
    "2369": "Ġ2062",
    "2370": "Ġ8.4mi",
    "2371": "Ġ8:30",
    "2372": "Ġ11:24/mi.",
    "2373": "Ġ7.8mi",
    "2374": "Ġ10.3mi",
    "2375": "Ġ9:20/mi.",
    "2376": "Ġ7.5mi",
    "2377": "Ġ4.5mi",
    "2378": "Ġ14.4mi",
    "2379": "Ġ8:40.",
    "2380": "Ġ11:03",
    "2381": "Ġ7:13.",
    "2382": "Ġ14.3mi",
    "2383": "Ġ7.3mi",
    "2384": "Ġ6:45",
    "2385": "Ġ3.5mi",
    "2386": "Ġ11.9mi",
    "2387": "Ġ6:45/mi.",
    "2388": "Ġ11:18/mi.",
    "2389": "Ġ7:13/mi.",
    "2390": "Ġ6.9mi",
    "2391": "Ġ4.9mi",
    "2392": "Ġ12.8mi",
    "2393": "Ġ6:58",
    "2394": "Ġ6:39",
    "2395": "Ġ11:03.",
    "2396": "Ġ9:31",
    "2397": "Ġ7:20/mi.",
    "2398": "Ġ3.2mi",
    "2399": "Ġ8:45/mi.",
    "2400": "Ġ9:43",
    "2401": "Ġ7:16.",
    "2402": "Ġ6:46/mi.",
    "2403": "Ġ6:32",
    "2404": "Ġ13.4mi",
    "2405": "Ġ12.0mi",
    "2406": "Ġ9:52.",
    "2407": "Ġ15.4mi",
    "2408": "Ġ10:28/mi.",
    "2409": "Ġ7:12",
    "2410": "Ġ6:34.",
    "2411": "Ġ7:09.",
    "2412": "Ġ7:45/mi.",
    "2413": "Ġ10:09/mi.",
    "2414": "Ġ11:37/mi.",
    "2415": "Ġ17.0mi",
    "2416": "Ġ9:30/mi.",
    "2417": "Ġ11.3mi",
    "2418": "Ġ11:22.",
    "2419": "Ġ7:17.",
    "2420": "Ġ10:34.",
    "2421": "Ġ7.46",
    "2422": "Ġ7.45",
    "2423": "Ġ6.25",
    "2424": "Ġ246",
    "2425": "Ġ20.5",
    "2426": "Ġ6.55",
    "2427": "Ġ11:59/mi,",
    "2428": "Ġ6.98",
    "2429": "Ġ5.11",
    "2430": "Ġ11.46",
    "2431": "Ġ7.32",
    "2432": "Ġ9.37",
    "2433": "Ġ7.23",
    "2434": "Ġ8:29/mi,",
    "2435": "Ġ9.35",
    "2436": "Ġ5.13",
    "2437": "Ġ4.05",
    "2438": "Ġ8.99",
    "2439": "Ġ10.76",
    "2440": "Ġ4.09",
    "2441": "Ġ8.64",
    "2442": "Ġ10.16",
    "2443": "Ġ7.36",
    "2444": "Ġ4.34",
    "2445": "Ġ8.25",
    "2446": "Ġ7.48",
    "2447": "Ġ11.04",
    "2448": "Ġ221",
    "2449": "Ġ4.68",
    "2450": "Ġ5.18",
    "2451": "Ġ9.25",
    "2452": "Ġ5:54/mi,",
    "2453": "Ġ5.54",
    "2454": "Ġ21.7",
    "2455": "Ġ11.43",
    "2456": "Ġ4.53",
    "2457": "Ġ11.73",
    "2458": "Ġ7.66",
    "2459": "Ġ11.82",
    "2460": "Ġ11.49",
    "2461": "Ġ11.93",
    "2462": "Ġ7.98",
    "2463": "Ġ296",
    "2464": "Ġ9.02",
    "2465": "Ġ7.14",
    "2466": "Ġ2.67",
    "2467": "Ġ8:47/mi,",
    "2468": "Ġ8.39",
    "2469": "Ġ9.61",
    "2470": "Ġ9.01",
    "2471": "Ġ5.12",
    "2472": "Ġ7.65",
    "2473": "Ġ4.56",
    "2474": "Ġ260",
    "2475": "Ġ4.01",
    "2476": "Ġ4.31",
    "2477": "Ġ9.87",
    "2478": "Ġ4.06",
    "2479": "Ġ2025",
    "2480": "Ġ9.33",
    "2481": "Ġ7.92",
    "2482": "Ġ5.34",
    "2483": "Ġ273",
    "2484": "Ġ12:01/mi,",
    "2485": "Ġ4.15",
    "2486": "Ġ9.52",
    "2487": "Ġ10.54",
    "2488": "Ġ5.44",
    "2489": "Ġ8.29",
    "2490": "Ġ291",
    "2491": "Ġ5.53",
    "2492": "Ġ5.78",
    "2493": "Ġ11.79",
    "2494": "Ġ6.66",
    "2495": "Ġ11.48",
    "2496": "Ġ3.53",
    "2497": "Ġ7.02",
    "2498": "Ġ254",
    "2499": "Ġ5:46/mi,",
    "2500": "Ġ11.96",
    "2501": "Ġ2042",
    "2502": "Ġ2046-10-2",
    "2503": "Ġ359",
    "2504": "Ġ2047",
    "2505": "Ġ2058",
    "2506": "Ġ13.0mi",
    "2507": "Ġ19.2mi",
    "2508": "Ġ7:03",
    "2509": "Ġ7:24/mi.",
    "2510": "Ġ12.4mi",
    "2511": "Ġ17.8mi",
    "2512": "Ġ9:41/mi.",
    "2513": "Ġ9:50/mi.",
    "2514": "Ġ7:02.",
    "2515": "Ġ6:54.",
    "2516": "Ġ11.0mi",
    "2517": "Ġ20.0mi",
    "2518": "Ġ6:35/mi.",
    "2519": "Ġ7:54/mi.",
    "2520": "Ġ6:15/mi.",
    "2521": "Ġ6.7mi",
    "2522": "Ġ9:00",
    "2523": "Ġ8.0mi",
    "2524": "Ġ7:30/mi.",
    "2525": "Ġ10:30.",
    "2526": "Ġ12.2mi",
    "2527": "Ġ6:56/mi.",
    "2528": "Ġ6:32.",
    "2529": "Ġ6:42.",
    "2530": "Ġ9:25/mi.",
    "2531": "Ġ4.7mi",
    "2532": "Ġ5.5mi",
    "2533": "Ġ9.7mi",
    "2534": "Ġ9:41",
    "2535": "Ġ7:09/mi.",
    "2536": "Ġ6:32/mi.",
    "2537": "Ġ12.6mi",
    "2538": "Ġ11:10.",
    "2539": "Ġ9:43.",
    "2540": "Ġ7:25/mi.",
    "2541": "Ġ4.0mi",
    "2542": "Ġ8:22.",
    "2543": "Ġ9:33/mi.",
    "2544": "Ġ8:39.",
    "2545": "Ġ16.8mi",
    "2546": "Ġ16.1mi",
    "2547": "Ġ9:28/mi.",
    "2548": "Ġ7:04/mi.",
    "2549": "Ġ3.6mi",
    "2550": "Ġ10:49.",
    "2551": "Ġ6:49.",
    "2552": "Ġ7:20",
    "2553": "Ġ10:56/mi.",
    "2554": "Ġ17.3mi",
    "2555": "Ġ3.1mi",
    "2556": "Ġ7:42",
    "2557": "Ġ7:27/mi.",
    "2558": "Ġ8.6mi",
    "2559": "Ġ11:03/mi.",
    "2560": "Ġ7:15.",
    "2561": "Ġ11:33/mi.",
    "2562": "Ġ10:41/mi.",
    "2563": "Ġ5.9mi",
    "2564": "Ġ8:41.",
    "2565": "Ġ11.2mi",
    "2566": "Ġ6:22",
    "2567": "Ġ11:31",
    "2568": "Ġ5.7mi",
    "2569": "Ġ280",
    "2570": "Ġ279",
    "2571": "Ġ6.28",
    "2572": "Ġ9.16",
    "2573": "Ġ11.52",
    "2574": "Ġ10.94",
    "2575": "Ġ5.39",
    "2576": "Ġ7.47",
    "2577": "Ġ235",
    "2578": "Ġ10.22",
    "2579": "Ġ4.24",
    "2580": "Ġ6.72",
    "2581": "Ġ212",
    "2582": "Ġ6.24",
    "2583": "Ġ3.83",
    "2584": "Ġ11.01",
    "2585": "Ġ4.22",
    "2586": "Ġ237",
    "2587": "Ġ10.33",
    "2588": "Ġ8.93",
    "2589": "Ġ5.92",
    "2590": "Ġ278",
    "2591": "Ġ9.27",
    "2592": "Ġ263",
    "2593": "Ġ5.31",
    "2594": "Ġ10.37",
    "2595": "Ġ351",
    "2596": "Ġ9.05",
    "2597": "Ġ7.56",
    "2598": "Ġ8.27",
    "2599": "Ġ21.5",
    "2600": "Ġ6.46",
    "2601": "Ġ8.43",
    "2602": "Ġ9.84",
    "2603": "Ġ267",
    "2604": "Ġ7.43",
    "2605": "Ġ6.51",
    "2606": "Ġ5:58/mi,",
    "2607": "Ġ7.44",
    "2608": "Ġ6.45",
    "2609": "Ġ6:03/mi,",
    "2610": "Ġ9.39",
    "2611": "Ġ5.84",
    "2612": "Ġ9.94",
    "2613": "Ġ7.17",
    "2614": "Ġ4.55",
    "2615": "Ġ282",
    "2616": "Ġ8.78",
    "2617": "Ġ223",
    "2618": "Ġ11.18",
    "2619": "Ġ8.63",
    "2620": "Ġ11.42",
    "2621": "Ġ8.08",
    "2622": "Ġ8.01",
    "2623": "Ġ4.83",
    "2624": "Ġ5.29",
    "2625": "Ġ9.41",
    "2626": "Ġ12:16/mi,",
    "2627": "Ġ218",
    "2628": "Ġ8.77",
    "2629": "Ġ6.27",
    "2630": "Ġ6.42",
    "2631": "Ġ6.38",
    "2632": "Ġ9.19",
    "2633": "Ġ6.83",
    "2634": "Ġ5.01",
    "2635": "Ġ5.47",
    "2636": "Ġ11.83",
    "2637": "Ġ7.95",
    "2638": "Ġ8.28",
    "2639": "Ġ6.23",
    "2640": "Ġ6.93",
    "2641": "Ġ11.13",
    "2642": "Ġ269",
    "2643": "Ġ6.94",
    "2644": "Ġ7.01",
    "2645": "Ġ11.31",
    "2646": "Ġ6.85",
    "2647": "Ġ5.02",
    "2648": "Ġ318",
    "2649": "Ġ11.58",
    "2650": "Ġ226",
    "2651": "Ġ11.75",
    "2652": "Ġ11.59",
    "2653": "Ġ4.42",
    "2654": "Ġ262",
    "2655": "Ġ7.28",
    "2656": "Ġ7.06",
    "2657": "Ġ5:50/mi,",
    "2658": "Ġ2.77",
    "2659": "Ġ11.86",
    "2660": "Ġ5.66",
    "2661": "Ġ7.35",
    "2662": "Ġ228",
    "2663": "Ġ5.43",
    "2664": "Ġ244",
    "2665": "Ġ213",
    "2666": "Ġ6.22",
    "2667": "Ġ11.91",
    "2668": "Ġ5.62",
    "2669": "Ġ7.19",
    "2670": "Ġ6.09",
    "2671": "Ġ4.26",
    "2672": "Ġ283",
    "2673": "Ġ340",
    "2674": "Ġ6.69",
    "2675": "Ġ7.12",
    "2676": "Ġ2051-10-2",
    "2677": "Ġ2053",
    "2678": "Ġ9:55/mi.",
    "2679": "Ġ11:00",
    "2680": "Ġ10.7mi",
    "2681": "Ġ7:24",
    "2682": "Ġ9:50",
    "2683": "Ġ6:43",
    "2684": "Ġ11:54/mi.",
    "2685": "Ġ18.1mi",
    "2686": "Ġ10:03",
    "2687": "Ġ11:41.",
    "2688": "Ġ11:22/mi.",
    "2689": "Ġ9:55.",
    "2690": "Ġ8:00",
    "2691": "Ġ8.5mi",
    "2692": "Ġ7:50.",
    "2693": "Ġ7:32/mi.",
    "2694": "Ġ7.1mi",
    "2695": "Ġ6.8mi",
    "2696": "Ġ11.8mi",
    "2697": "Ġ11:01/mi.",
    "2698": "Ġ9:22",
    "2699": "Ġ10:45/mi.",
    "2700": "Ġ7:10.",
    "2701": "Ġ8.8mi",
    "2702": "Ġ8:31",
    "2703": "Ġ9:07.",
    "2704": "Ġ6:42",
    "2705": "Ġ11:37",
    "2706": "Ġ9:39",
    "2707": "Ġ9:13",
    "2708": "Ġ10:28.",
    "2709": "Ġ6:20",
    "2710": "Ġ6:55/mi.",
    "2711": "Ġ11:40",
    "2712": "Ġ6:49/mi.",
    "2713": "Ġ9:40",
    "2714": "Ġ16.9mi",
    "2715": "Ġ6:31.",
    "2716": "Ġ8:24.",
    "2717": "Ġ7:50",
    "2718": "Ġ8:25",
    "2719": "Ġ13.8mi",
    "2720": "Ġ8:19/mi.",
    "2721": "Ġ6:37/mi.",
    "2722": "Ġ10:58",
    "2723": "Ġ7:19/mi.",
    "2724": "Ġ10:33/mi.",
    "2725": "Ġ9:31/mi.",
    "2726": "Ġ11.6mi",
    "2727": "Ġ10:04.",
    "2728": "Ġ10:11",
    "2729": "Ġ7:40/mi.",
    "2730": "Ġ6:25.",
    "2731": "Ġ6:28.",
    "2732": "Ġ6:40",
    "2733": "Ġ7:07/mi.",
    "2734": "Ġ6:34/mi.",
    "2735": "Ġ11:15",
    "2736": "Ġ8:56/mi.",
    "2737": "Ġ9:30",
    "2738": "Ġ8:07/mi.",
    "2739": "Ġ10:48/mi.",
    "2740": "Ġ6:39/mi.",
    "2741": "Ġ8:15/mi.",
    "2742": "Ġ11.7mi",
    "2743": "Ġ8:55/mi.",
    "2744": "Ġ3.3mi",
    "2745": "Ġ11:10/mi.",
    "2746": "Ġ6:27",
    "2747": "Ġ7:19.",
    "2748": "Ġ10.2mi",
    "2749": "Ġ10:00/mi.",
    "2750": "Ġ7.2mi",
    "2751": "Ġ10:13",
    "2752": "Ġ11:19",
    "2753": "Ġ8:31.",
    "2754": "Ġ6:24.",
    "2755": "Ġ8:29",
    "2756": "Ġ11:20",
    "2757": "Ġ9:33",
    "2758": "Ġ8:22",
    "2759": "Ġ8:20.",
    "2760": "Ġ6:24",
    "2761": "Ġ11.1mi",
    "2762": "Ġ11:11/mi.",
    "2763": "Ġ6:10",
    "2764": "Ġ7:13",
    "2765": "Ġ10:16/mi.",
    "2766": "Ġ12.1mi",
    "2767": "Ġ6:47.",
    "2768": "Ġ7:54.",
    "2769": "Ġ5.83",
    "2770": "Ġ9.07",
    "2771": "Ġ6.71",
    "2772": "Ġ5.06",
    "2773": "Ġ9.72",
    "2774": "Ġ225",
    "2775": "Ġ10.45",
    "2776": "Ġ4.46",
    "2777": "Ġ6.52",
    "2778": "Ġ6.48",
    "2779": "Ġ11.55",
    "2780": "Ġ6.07",
    "2781": "Ġ9.98",
    "2782": "Ġ5:40/mi,",
    "2783": "Ġ8.89",
    "2784": "Ġ5:39/mi,",
    "2785": "Ġ11.69",
    "2786": "Ġ5.48",
    "2787": "Ġ6.08",
    "2788": "Ġ6.37",
    "2789": "Ġ9.65",
    "2790": "Ġ9.75",
    "2791": "Ġ6.53",
    "2792": "Ġ21.3",
    "2793": "Ġ7.22",
    "2794": "Ġ8.17",
    "2795": "Ġ12:06/mi,",
    "2796": "Ġ2.41",
    "2797": "Ġ11.84",
    "2798": "Ġ4.44",
    "2799": "Ġ253",
    "2800": "Ġ5.19",
    "2801": "Ġ5.98",
    "2802": "Ġ10.08",
    "2803": "Ġ10.29",
    "2804": "Ġ10.38",
    "2805": "Ġ5.26",
    "2806": "Ġ7.53",
    "2807": "Ġ9.55",
    "2808": "Ġ6.76",
    "2809": "Ġ10.47",
    "2810": "Ġ8.59",
    "2811": "Ġ6.12",
    "2812": "Ġ5.59",
    "2813": "Ġ5.28",
    "2814": "Ġ7.51",
    "2815": "Ġ10.84",
    "2816": "Ġ10.26",
    "2817": "Ġ3.36",
    "2818": "Ġ10.39",
    "2819": "Ġ8.04",
    "2820": "Ġ5.57",
    "2821": "Ġ5.75",
    "2822": "Ġ9.91",
    "2823": "Ġ6.04",
    "2824": "Ġ4.59",
    "2825": "Ġ10.44",
    "2826": "Ġ11.17",
    "2827": "Ġ11.34",
    "2828": "Ġ21.9",
    "2829": "Ġ10.64",
    "2830": "Ġ7.77",
    "2831": "Ġ300",
    "2832": "Ġ7.59",
    "2833": "Ġ8.07",
    "2834": "Ġ245",
    "2835": "Ġ10.86",
    "2836": "Ġ11.28",
    "2837": "Ġ5.07",
    "2838": "Ġ11.37",
    "2839": "Ġ8.95",
    "2840": "Ġ8.26",
    "2841": "Ġ7.03",
    "2842": "Ġ5.58",
    "2843": "Ġ10.58",
    "2844": "Ġ10.51",
    "2845": "Ġ2.74",
    "2846": "Ġ11.68",
    "2847": "Ġ286",
    "2848": "Ġ7.93",
    "2849": "Ġ5.41",
    "2850": "Ġ11.98",
    "2851": "Ġ9.64",
    "2852": "Ġ2030-10-2",
    "2853": "Ġ4.65",
    "2854": "Ġ11.57",
    "2855": "Ġ8.55",
    "2856": "Ġ9.34",
    "2857": "Ġ11.99",
    "2858": "Ġ6.68",
    "2859": "Ġ7.05",
    "2860": "Ġ11.81",
    "2861": "Ġ8.71",
    "2862": "Ġ7.62",
    "2863": "Ġ5.79",
    "2864": "Ġ5.96",
    "2865": "Ġ7.57",
    "2866": "Ġ236",
    "2867": "Ġ4.63",
    "2868": "Ġ7.84",
    "2869": "Ġ6.73",
    "2870": "Ġ8.79",
    "2871": "Ġ2047-10-2",
    "2872": "Ġ302",
    "2873": "Ġ7:43/mi.",
    "2874": "Ġ11:13.",
    "2875": "Ġ7:44",
    "2876": "Ġ10:02.",
    "2877": "Ġ10:52/mi.",
    "2878": "Ġ11:15/mi.",
    "2879": "Ġ7:14/mi.",
    "2880": "Ġ9:37",
    "2881": "Ġ7:05.",
    "2882": "Ġ451",
    "2883": "Ġ395",
    "2884": "Ġ7:21.",
    "2885": "Ġ6:55.",
    "2886": "Ġ11:04",
    "2887": "Ġ9:46",
    "2888": "Ġ9:05.",
    "2889": "Ġ7:50/mi.",
    "2890": "Ġ8:27/mi.",
    "2891": "Ġ9:35",
    "2892": "Ġ11:34/mi.",
    "2893": "Ġ16.6mi",
    "2894": "Ġ6:43/mi.",
    "2895": "Ġ17.9mi",
    "2896": "Ġ11:20.",
    "2897": "Ġ11:09/mi.",
    "2898": "Ġ9:16/mi.",
    "2899": "Ġ18.3mi",
    "2900": "Ġ6:16",
    "2901": "Ġ7.0mi",
    "2902": "Ġ7:17",
    "2903": "Ġ6:22.",
    "2904": "Ġ9:09/mi.",
    "2905": "Ġ10:31/mi.",
    "2906": "Ġ7:17/mi.",
    "2907": "Ġ6:50",
    "2908": "Ġ8:25/mi.",
    "2909": "Ġ9:10/mi.",
    "2910": "Ġ6:40.",
    "2911": "Ġ9:01",
    "2912": "Ġ11:13/mi.",
    "2913": "Ġ11:25/mi.",
    "2914": "Ġ11.5mi",
    "2915": "Ġ7.6mi",
    "2916": "Ġ9:45.",
    "2917": "Ġ6.0mi",
    "2918": "Ġ6:10.",
    "2919": "Ġ10:04/mi.",
    "2920": "Ġ10:10/mi.",
    "2921": "Ġ6.1mi",
    "2922": "Ġ10:46/mi.",
    "2923": "Ġ9:58/mi.",
    "2924": "Ġ9:30.",
    "2925": "Ġ11:01",
    "2926": "Ġ10:10.",
    "2927": "Ġ9:27.",
    "2928": "Ġ7:34.",
    "2929": "Ġ9:39/mi.",
    "2930": "Ġ10.0mi",
    "2931": "Ġ10:09.",
    "2932": "Ġ6:35",
    "2933": "Ġ7:01.",
    "2934": "Ġ10:37",
    "2935": "Ġ9:19",
    "2936": "Ġ10:03/mi.",
    "2937": "Ġ4.2mi",
    "2938": "Ġ19.8mi",
    "2939": "Ġ6:38",
    "2940": "Ġ9:40/mi.",
    "2941": "Ġ7:47.",
    "2942": "Ġ8:24/mi.",
    "2943": "Ġ10:34/mi.",
    "2944": "Ġ9:34/mi.",
    "2945": "Ġ6:55",
    "2946": "Ġ9:49",
    "2947": "Ġ11:22",
    "2948": "Ġ9:49.",
    "2949": "Ġ7:52.",
    "2950": "Ġ10:46",
    "2951": "Ġ9:58",
    "2952": "Ġ6:52/mi.",
    "2953": "Ġ3.63",
    "2954": "Ġ8.15",
    "2955": "Ġ11.94",
    "2956": "Ġ6.79",
    "2957": "Ġ6.81",
    "2958": "Ġ8.67",
    "2959": "Ġ10.27",
    "2960": "Ġ2.27",
    "2961": "Ġ6.91",
    "2962": "Ġ7.58",
    "2963": "Ġ12:31/mi,",
    "2964": "Ġ2020-10-2",
    "2965": "Ġ6.89",
    "2966": "Ġ10.17",
    "2967": "Ġ10.12",
    "2968": "Ġ9.82",
    "2969": "Ġ10.75",
    "2970": "Ġ9.74",
    "2971": "Ġ11.53",
    "2972": "Ġ8.38",
    "2973": "Ġ7.16",
    "2974": "Ġ2021-10-2",
    "2975": "Ġ6.41",
    "2976": "Ġ9.66",
    "2977": "Ġ3.23",
    "2978": "Ġ6.64",
    "2979": "Ġ11.02",
    "2980": "Ġ10.99",
    "2981": "Ġ7.86",
    "2982": "Ġ6.36",
    "2983": "Ġ5.27",
    "2984": "Ġ2022-10-2",
    "2985": "Ġ5.16",
    "2986": "Ġ10.03",
    "2987": "Ġ6.86",
    "2988": "Ġ10.85",
    "2989": "Ġ5:49/mi,",
    "2990": "Ġ11.05",
    "2991": "Ġ3.66",
    "2992": "Ġ10.69",
    "2993": "Ġ8.61",
    "2994": "Ġ2.04",
    "2995": "Ġ317",
    "2996": "Ġ7.67",
    "2997": "Ġ5.45",
    "2998": "Ġ11.23",
    "2999": "Ġ2.15",
    "3000": "Ġ233",
    "3001": "Ġ349",
    "3002": "Ġ8.19",
    "3003": "Ġ5.68",
    "3004": "Ġ232",
    "3005": "Ġ2024-10-2",
    "3006": "Ġ8.03",
    "3007": "Ġ11.08",
    "3008": "Ġ2.03",
    "3009": "Ġ8.88",
    "3010": "Ġ9.17",
    "3011": "Ġ297",
    "3012": "Ġ9.13",
    "3013": "Ġ312",
    "3014": "Ġ10.98",
    "3015": "Ġ7.71",
    "3016": "Ġ5.56",
    "3017": "Ġ9.71",
    "3018": "Ġ271",
    "3019": "Ġ8.96",
    "3020": "Ġ3.81",
    "3021": "Ġ5.61",
    "3022": "Ġ3.34",
    "3023": "Ġ10.48",
    "3024": "Ġ2.69",
    "3025": "Ġ5.77",
    "3026": "Ġ9.48",
    "3027": "Ġ3.52",
    "3028": "Ġ6.01",
    "3029": "Ġ9.67",
    "3030": "Ġ5:37/mi,",
    "3031": "Ġ7.07",
    "3032": "Ġ11.36",
    "3033": "Ġ11.89",
    "3034": "Ġ2.73",
    "3035": "Ġ10.28",
    "3036": "Ġ7.76",
    "3037": "Ġ9.49",
    "3038": "Ġ6.92",
    "3039": "Ġ11.47",
    "3040": "Ġ8.81",
    "3041": "Ġ10.67",
    "3042": "Ġ239",
    "3043": "Ġ8.49",
    "3044": "Ġ274",
    "3045": "Ġ8.57",
    "3046": "Ġ2033-10-2",
    "3047": "Ġ9.36",
    "3048": "Ġ10.18",
    "3049": "Ġ492",
    "3050": "Ġ234",
    "3051": "Ġ7.82",
    "3052": "Ġ252",
    "3053": "Ġ10.65",
    "3054": "Ġ2038-10-2",
    "3055": "Ġ2039-10-2",
    "3056": "Ġ11.39",
    "3057": "Ġ7.99",
    "3058": "Ġ2042-10-2",
    "3059": "Ġ3.43",
    "3060": "Ġ2043-10-2",
    "3061": "Ġ495",
    "3062": "Ġ2044-10-2",
    "3063": "Ġ2055-10-2",
    "3064": "Ġ2060-10-2",
    "3065": "Ġ17.5mi",
    "3066": "Ġ7:22.",
    "3067": "Ġ506",
    "3068": "Ġ6:52",
    "3069": "Ġ10:00",
    "3070": "Ġ6:05",
    "3071": "Ġ10:35.",
    "3072": "Ġ9:25.",
    "3073": "Ġ7:02",
    "3074": "Ġ10:01",
    "3075": "Ġ11:45",
    "3076": "Ġ8:35/mi.",
    "3077": "Ġ6.4mi",
    "3078": "Ġ7.7mi",
    "3079": "Ġ8:26.",
    "3080": "Ġ7:58.",
    "3081": "Ġ7:30.",
    "3082": "Ġ11:20/mi.",
    "3083": "Ġ6:56",
    "3084": "Ġ7:34",
    "3085": "Ġ11:30",
    "3086": "Ġ7:12.",
    "3087": "Ġ10:07/mi.",
    "3088": "Ġ8:26",
    "3089": "Ġ8:03/mi.",
    "3090": "Ġ7:08",
    "3091": "Ġ11:24.",
    "3092": "Ġ8:41/mi.",
    "3093": "Ġ8:49/mi.",
    "3094": "Ġ8:37/mi.",
    "3095": "Ġ9:55",
    "3096": "Ġ6:57",
    "3097": "Ġ7:51",
    "3098": "Ġ11:06/mi.",
    "3099": "Ġ9:26",
    "3100": "Ġ11:05/mi.",
    "3101": "Ġ7:52",
    "3102": "Ġ10:39",
    "3103": "Ġ8:56",
    "3104": "Ġ9:16",
    "3105": "Ġ9:48.",
    "3106": "Ġ6:40/mi.",
    "3107": "Ġ9:05/mi.",
    "3108": "Ġ745",
    "3109": "Ġ10:34",
    "3110": "Ġ6:54",
    "3111": "Ġ6:31/mi.",
    "3112": "Ġ11:24",
    "3113": "Ġ8:28.",
    "3114": "Ġ10:26/mi.",
    "3115": "Ġ11:04/mi.",
    "3116": "Ġ3.4mi",
    "3117": "Ġ12.5mi",
    "3118": "Ġ7:37",
    "3119": "Ġ10:20/mi.",
    "3120": "Ġ7:12/mi.",
    "3121": "Ġ9:34",
    "3122": "Ġ7:04.",
    "3123": "Ġ15.6mi",
    "3124": "Ġ8:16/mi.",
    "3125": "Ġ8.3mi",
    "3126": "Ġ10:25.",
    "3127": "Ġ7:27",
    "3128": "Ġ11:34",
    "3129": "Ġ777",
    "3130": "Ġ8:40",
    "3131": "Ġ11:10",
    "3132": "Ġ6:58.",
    "3133": "Ġ800",
    "3134": "Ġ6:39.",
    "3135": "Ġ11:30/mi.",
    "3136": "Ġ3.9mi",
    "3137": "Ġ8:19",
    "3138": "Ġ11:19/mi.",
    "3139": "Ġ9:11/mi.",
    "3140": "Ġ8:37.",
    "3141": "Ġ10:13.",
    "3142": "Ġ6:37.",
    "3143": "Ġ9:22/mi.",
    "3144": "Ġ7:03/mi.",
    "3145": "Ġ8:20",
    "3146": "Ġ9:26.",
    "3147": "Ġ8:34",
    "3148": "Ġ7:57.",
    "3149": "Ġ7:32.",
    "3150": "Ġ8:33/mi.",
    "3151": "Ġ10:33.",
    "3152": "Ġ6:27/mi.",
    "3153": "Ġ7:52/mi.",
    "3154": "Ġ9:15/mi.",
    "3155": "Ġ10:52",
    "3156": "Ġ9:15",
    "3157": "Ġ9:06",
    "3158": "Ġ7:45.",
    "3159": "Ġ9:09.",
    "3160": "Ġ10:54",
    "3161": "Ġ9:56.",
    "3162": "Ġ7:45",
    "3163": "Ġ10:49",
    "3164": "Ġ9:54",
    "3165": "Ġ17.2mi",
    "3166": "Ġ7:40.",
    "3167": "Ġ10:01.",
    "3168": "Ġ10:35",
    "3169": "Ġ10:31.",
    "3170": "Ġ9:59/mi.",
    "3171": "Ġ10:58/mi.",
    "3172": "Ġ6:25/mi.",
    "3173": "Ġ6:19/mi.",
    "3174": "Ġ9:56/mi.",
    "3175": "Ġ7:35.",
    "3176": "Ġ7:37/mi.",
    "3177": "Ġ9:28",
    "3178": "Ġ9:37.",
    "3179": "Ġ10:37.",
    "3180": "Ġ7:26/mi.",
    "3181": "Ġ7:57/mi.",
    "3182": "Ġ11:11",
    "3183": "Ġ516",
    "3184": "Ġ12.7mi",
    "3185": "Ġ8.18",
    "3186": "Ġ10.62",
    "3187": "Ġ7.55",
    "3188": "Ġ9.26",
    "3189": "Ġ10.81",
    "3190": "Ġ259",
    "3191": "Ġ10.21",
    "3192": "Ġ21.41",
    "3193": "Ġ2.22",
    "3194": "Ġ7.88",
    "3195": "Ġ2.49",
    "3196": "Ġ9.22",
    "3197": "Ġ11.77",
    "3198": "Ġ8.32",
    "3199": "Ġ3.62",
    "3200": "Ġ10.14",
    "3201": "Ġ10.52",
    "3202": "Ġ2.42",
    "3203": "Ġ249",
    "3204": "Ġ10.72",
    "3205": "Ġ8.37",
    "3206": "Ġ5.81",
    "3207": "Ġ334",
    "3208": "Ġ2.66",
    "3209": "Ġ6.39",
    "3210": "Ġ11.62",
    "3211": "Ġ11.12",
    "3212": "Ġ10.87",
    "3213": "Ġ12:24/mi,",
    "3214": "Ġ10.36",
    "3215": "Ġ394",
    "3216": "Ġ2.36",
    "3217": "Ġ8.91",
    "3218": "Ġ11.35",
    "3219": "Ġ11.56",
    "3220": "Ġ268",
    "3221": "Ġ2.81",
    "3222": "Ġ10.31",
    "3223": "Ġ6.96",
    "3224": "Ġ9.28",
    "3225": "Ġ11.97",
    "3226": "Ġ7.11",
    "3227": "Ġ275",
    "3228": "Ġ11.22",
    "3229": "Ġ11.51",
    "3230": "Ġ3.06",
    "3231": "Ġ4.11",
    "3232": "Ġ11.66",
    "3233": "Ġ11.64",
    "3234": "Ġ10.79",
    "3235": "Ġ324",
    "3236": "Ġ8.36",
    "3237": "Ġ5.25",
    "3238": "Ġ10.05",
    "3239": "Ġ2.07",
    "3240": "Ġ2025-10-2",
    "3241": "Ġ2.44",
    "3242": "Ġ270",
    "3243": "Ġ10.35",
    "3244": "Ġ2.16",
    "3245": "Ġ7.26",
    "3246": "Ġ11.15",
    "3247": "Ġ3.57",
    "3248": "Ġ21.0",
    "3249": "Ġ12:20/mi,",
    "3250": "Ġ11.54",
    "3251": "Ġ3.55",
    "3252": "Ġ11:53/mi,",
    "3253": "Ġ8.84",
    "3254": "Ġ7.78",
    "3255": "Ġ432",
    "3256": "Ġ8.68",
    "3257": "Ġ8.34",
    "3258": "Ġ2.45",
    "3259": "Ġ3.22",
    "3260": "Ġ7.96",
    "3261": "Ġ8.31",
    "3262": "Ġ2.95",
    "3263": "Ġ3.65",
    "3264": "Ġ10.83",
    "3265": "Ġ341",
    "3266": "Ġ4.75",
    "3267": "Ġ5.51",
    "3268": "Ġ2029-10-2",
    "3269": "Ġ9.18",
    "3270": "Ġ3.35",
    "3271": "Ġ343",
    "3272": "Ġ8.44",
    "3273": "Ġ12:25/mi,",
    "3274": "Ġ310",
    "3275": "Ġ8.02",
    "3276": "Ġ9.29",
    "3277": "Ġ2031-10-2",
    "3278": "Ġ11.24",
    "3279": "Ġ257",
    "3280": "Ġ434",
    "3281": "Ġ2032-10-2",
    "3282": "Ġ323",
    "3283": "Ġ21.6",
    "3284": "Ġ9.24",
    "3285": "Ġ444",
    "3286": "Ġ241",
    "3287": "Ġ11.87",
    "3288": "Ġ9.04",
    "3289": "Ġ250",
    "3290": "Ġ11.32",
    "3291": "Ġ319",
    "3292": "Ġ9.23",
    "3293": "Ġ11.44",
    "3294": "Ġ2036-10-2",
    "3295": "Ġ20.2",
    "3296": "Ġ2037-10-2",
    "3297": "Ġ3.96",
    "3298": "Ġ10.66",
    "3299": "Ġ10.13",
    "3300": "Ġ8.85",
    "3301": "Ġ10.19",
    "3302": "Ġ2040-10-2",
    "3303": "Ġ7.94",
    "3304": "Ġ2041-10-2",
    "3305": "Ġ404",
    "3306": "Ġ333",
    "3307": "Ġ473",
    "3308": "Ġ2050-10-2",
    "3309": "Ġ648",
    "3310": "Ġ2053-10-2",
    "3311": "Ġ2054-10-2",
    "3312": "Ġ2056-10-2",
    "3313": "Ġ2059-10-2",
    "3314": "Ġ2062-10-2",
    "3315": "Ġ2063-10-2",
    "3316": "Ġ2064-10-2",
    "3317": "Ġ11:35.",
    "3318": "Ġ8:05/mi.",
    "3319": "Ġ9:15.",
    "3320": "Ġ719",
    "3321": "Ġ9:56",
    "3322": "Ġ11:25.",
    "3323": "Ġ9:17/mi.",
    "3324": "Ġ9:01/mi.",
    "3325": "Ġ10:26",
    "3326": "Ġ10:52.",
    "3327": "Ġ10:49/mi.",
    "3328": "Ġ6:52.",
    "3329": "Ġ11:45.",
    "3330": "Ġ9:35/mi.",
    "3331": "Ġ10:39/mi.",
    "3332": "Ġ9:50.",
    "3333": "Ġ3.8mi",
    "3334": "Ġ9:38.",
    "3335": "Ġ10:20.",
    "3336": "Ġ6:00.",
    "3337": "Ġ9:02",
    "3338": "Ġ11:39/mi.",
    "3339": "Ġ6:00",
    "3340": "Ġ7:31",
    "3341": "Ġ9:27/mi.",
    "3342": "Ġ9:16.",
    "3343": "Ġ10:40",
    "3344": "Ġ7:42.",
    "3345": "Ġ8:16.",
    "3346": "Ġ8.9mi",
    "3347": "Ġ8:11.",
    "3348": "Ġ6:09.",
    "3349": "Ġ4.8mi",
    "3350": "Ġ9:34.",
    "3351": "Ġ736",
    "3352": "Ġ709",
    "3353": "Ġ6:30",
    "3354": "Ġ6:59/mi.",
    "3355": "Ġ12:00/mi.",
    "3356": "Ġ10:55/mi.",
    "3357": "Ġ9:32/mi.",
    "3358": "Ġ7:37.",
    "3359": "Ġ10:15/mi.",
    "3360": "Ġ8:54/mi.",
    "3361": "Ġ11:26",
    "3362": "Ġ6:22/mi.",
    "3363": "Ġ6.5mi",
    "3364": "Ġ10:45.",
    "3365": "Ġ5.4mi",
    "3366": "Ġ10:38/mi.",
    "3367": "Ġ10:44/mi.",
    "3368": "Ġ8:18/mi.",
    "3369": "Ġ8:43.",
    "3370": "Ġ9:02.",
    "3371": "Ġ11:18.",
    "3372": "Ġ10:33",
    "3373": "Ġ8:55.",
    "3374": "Ġ11:29/mi.",
    "3375": "Ġ10:22.",
    "3376": "Ġ10:24/mi.",
    "3377": "Ġ8:02",
    "3378": "Ġ662",
    "3379": "Ġ655",
    "3380": "Ġ11:48.",
    "3381": "Ġ6:42/mi.",
    "3382": "Ġ10:45",
    "3383": "Ġ556",
    "3384": "Ġ481",
    "3385": "Ġ7:24.",
    "3386": "Ġ8:44",
    "3387": "Ġ6:07",
    "3388": "Ġ11:00.",
    "3389": "Ġ10:24",
    "3390": "Ġ9:01.",
    "3391": "Ġ10:14",
    "3392": "Ġ9:36/mi.",
    "3393": "Ġ8:55",
    "3394": "Ġ14.5mi",
    "3395": "Ġ9:19/mi.",
    "3396": "Ġ7:39/mi.",
    "3397": "Ġ7:09",
    "3398": "Ġ11:16/mi.",
    "3399": "Ġ515",
    "3400": "Ġ10:05",
    "3401": "Ġ8:48.",
    "3402": "Ġ6:57.",
    "3403": "Ġ11:07/mi.",
    "3404": "Ġ9:45/mi.",
    "3405": "Ġ8:27",
    "3406": "Ġ9:40.",
    "3407": "Ġ9:44/mi.",
    "3408": "Ġ8:11/mi.",
    "3409": "Ġ7:21",
    "3410": "Ġ733",
    "3411": "Ġ14.1mi",
    "3412": "Ġ7:27.",
    "3413": "Ġ6:46.",
    "3414": "Ġ7:41.",
    "3415": "Ġ9:31.",
    "3416": "Ġ8:01",
    "3417": "Ġ11:55",
    "3418": "Ġ11:05.",
    "3419": "Ġ10:41",
    "3420": "Ġ7:16",
    "3421": "Ġ5:58.",
    "3422": "Ġ8:29.",
    "3423": "Ġ7:34/mi.",
    "3424": "Ġ6:48",
    "3425": "Ġ8:09.",
    "3426": "Ġ11:32/mi.",
    "3427": "Ġ6:31",
    "3428": "Ġ11:12",
    "3429": "Ġ12:00.",
    "3430": "Ġ8:15",
    "3431": "Ġ7:55.",
    "3432": "Ġ11:43/mi.",
    "3433": "Ġ6:51/mi.",
    "3434": "Ġ8:46/mi.",
    "3435": "Ġ7:28.",
    "3436": "Ġ5:59",
    "3437": "Ġ10:46.",
    "3438": "Ġ10:02/mi.",
    "3439": "Ġ6:44/mi.",
    "3440": "Ġ7:11",
    "3441": "Ġ10.46",
    "3442": "Ġ11.71",
    "3443": "Ġ8.92",
    "3444": "Ġ10.06",
    "3445": "Ġ2.17",
    "3446": "Ġ3.94",
    "3447": "Ġ5.08",
    "3448": "Ġ6.43",
    "3449": "Ġ3.93",
    "3450": "Ġ9.78",
    "3451": "Ġ5.65",
    "3452": "Ġ9.44",
    "3453": "Ġ9.95",
    "3454": "Ġ11.85",
    "3455": "Ġ8.66",
    "3456": "Ġ290",
    "3457": "Ġ9.85",
    "3458": "Ġ5:34/mi,",
    "3459": "Ġ10.95",
    "3460": "Ġ2.32",
    "3461": "Ġ379",
    "3462": "Ġ9.32",
    "3463": "Ġ10.11",
    "3464": "Ġ276",
    "3465": "Ġ10.04",
    "3466": "Ġ2.19",
    "3467": "Ġ6.75",
    "3468": "Ġ9.92",
    "3469": "Ġ11.14",
    "3470": "Ġ10.63",
    "3471": "Ġ240",
    "3472": "Ġ8.58",
    "3473": "Ġ248",
    "3474": "Ġ12:32/mi,",
    "3475": "Ġ5:44/mi,",
    "3476": "Ġ8.83",
    "3477": "Ġ12:35/mi,",
    "3478": "Ġ9.99",
    "3479": "Ġ10.68",
    "3480": "Ġ8.14",
    "3481": "Ġ8.46",
    "3482": "Ġ3.67",
    "3483": "Ġ9.09",
    "3484": "Ġ2.63",
    "3485": "Ġ5:32/mi,",
    "3486": "Ġ11.92",
    "3487": "Ġ3.71",
    "3488": "Ġ2.83",
    "3489": "Ġ2.86",
    "3490": "Ġ11.19",
    "3491": "Ġ11.03",
    "3492": "Ġ371",
    "3493": "Ġ391",
    "3494": "Ġ8.16",
    "3495": "Ġ10.78",
    "3496": "Ġ11.67",
    "3497": "Ġ370",
    "3498": "Ġ11.78",
    "3499": "Ġ2.56",
    "3500": "Ġ2.05",
    "3501": "Ġ342",
    "3502": "Ġ11:51/mi,",
    "3503": "Ġ460",
    "3504": "Ġ8.48",
    "3505": "Ġ571",
    "3506": "Ġ295",
    "3507": "Ġ3.13",
    "3508": "Ġ10.93",
    "3509": "Ġ11.38",
    "3510": "Ġ7.25",
    "3511": "Ġ9.73",
    "3512": "Ġ305",
    "3513": "Ġ2028-10-2",
    "3514": "Ġ2.97",
    "3515": "Ġ12:19/mi,",
    "3516": "Ġ9.79",
    "3517": "Ġ8.33",
    "3518": "Ġ11.65",
    "3519": "Ġ383",
    "3520": "Ġ3.48",
    "3521": "Ġ5.23",
    "3522": "Ġ8.51",
    "3523": "Ġ9.81",
    "3524": "Ġ3.04",
    "3525": "Ġ3.92",
    "3526": "Ġ398",
    "3527": "Ġ11.41",
    "3528": "Ġ11.63",
    "3529": "Ġ3.58",
    "3530": "Ġ2.12",
    "3531": "Ġ5:0",
    "3532": "Ġ10.74",
    "3533": "Ġ2034-10-2",
    "3534": "Ġ11.07",
    "3535": "Ġ393",
    "3536": "Ġ2035-10-2",
    "3537": "Ġ358",
    "3538": "Ġ3.78",
    "3539": "Ġ6.03",
    "3540": "Ġ5.97",
    "3541": "Ġ367",
    "3542": "Ġ9.08",
    "3543": "Ġ264",
    "3544": "Ġ8.21",
    "3545": "Ġ5.15",
    "3546": "Ġ408",
    "3547": "Ġ281",
    "3548": "Ġ5.52",
    "3549": "Ġ380",
    "3550": "Ġ11.06",
    "3551": "Ġ539",
    "3552": "Ġ6.16",
    "3553": "Ġ8.98",
    "3554": "Ġ7.38",
    "3555": "Ġ5:56/mi,",
    "3556": "Ġ8.47",
    "3557": "Ġ339",
    "3558": "Ġ8.73",
    "3559": "Ġ8.54",
    "3560": "Ġ258",
    "3561": "Ġ332",
    "3562": "Ġ9.59",
    "3563": "Ġ3.39",
    "3564": "Ġ479",
    "3565": "Ġ238",
    "3566": "Ġ256",
    "3567": "Ġ12:5",
    "3568": "Ġ2045-10-2",
    "3569": "Ġ2048-10-2",
    "3570": "Ġ2049-10-2",
    "3571": "Ġ2057-10-2",
    "3572": "Ġ2058-10-2",
    "3573": "Ġ306",
    "3574": "Ġ284",
    "3575": "Ġ385",
    "3576": "Ġ374",
    "3577": "Ġ401",
    "3578": "Ġ6:59.",
    "3579": "Ġ8:18",
    "3580": "Ġ6:07.",
    "3581": "Ġ8:07",
    "3582": "Ġ11:46",
    "3583": "Ġ611",
    "3584": "Ġ6:29.",
    "3585": "Ġ7:43",
    "3586": "Ġ7:10/mi.",
    "3587": "Ġ10:15",
    "3588": "Ġ8:50.",
    "3589": "Ġ6:45.",
    "3590": "Ġ757",
    "3591": "Ġ8:11",
    "3592": "Ġ7:23",
    "3593": "Ġ11:46.",
    "3594": "Ġ702",
    "3595": "Ġ10:27/mi.",
    "3596": "Ġ589",
    "3597": "Ġ5:49/mi.",
    "3598": "Ġ8:53",
    "3599": "Ġ7:51/mi.",
    "3600": "Ġ7:04",
    "3601": "Ġ7:29/mi.",
    "3602": "Ġ9:57.",
    "3603": "Ġ10:17",
    "3604": "Ġ10:10",
    "3605": "Ġ7:28/mi.",
    "3606": "Ġ8:10",
    "3607": "Ġ9:58.",
    "3608": "Ġ8:52/mi.",
    "3609": "Ġ7:46/mi.",
    "3610": "Ġ6:26/mi.",
    "3611": "Ġ467",
    "3612": "Ġ6:17/mi.",
    "3613": "Ġ9:24/mi.",
    "3614": "Ġ661",
    "3615": "Ġ12:04/mi.",
    "3616": "Ġ9:20.",
    "3617": "Ġ7:54",
    "3618": "Ġ7:01",
    "3619": "Ġ6:19.",
    "3620": "Ġ7:28",
    "3621": "Ġ6:13.",
    "3622": "Ġ9:45",
    "3623": "Ġ6:14/mi.",
    "3624": "Ġ9:12.",
    "3625": "Ġ7:23/mi.",
    "3626": "Ġ11:17/mi.",
    "3627": "Ġ8:35",
    "3628": "Ġ10:32/mi.",
    "3629": "Ġ11:43.",
    "3630": "Ġ8:13/mi.",
    "3631": "Ġ7:43.",
    "3632": "Ġ11:41",
    "3633": "Ġ11:13",
    "3634": "Ġ8:09",
    "3635": "Ġ11:14/mi.",
    "3636": "Ġ708",
    "3637": "Ġ9:03.",
    "3638": "Ġ7:35",
    "3639": "Ġ10:11.",
    "3640": "Ġ9:23.",
    "3641": "Ġ6:54/mi.",
    "3642": "Ġ10:16.",
    "3643": "Ġ6:25",
    "3644": "Ġ608",
    "3645": "Ġ553",
    "3646": "Ġ466",
    "3647": "Ġ8:22/mi.",
    "3648": "Ġ13.1mi",
    "3649": "Ġ11:49.",
    "3650": "Ġ8:58",
    "3651": "Ġ6:36",
    "3652": "Ġ7:22",
    "3653": "Ġ631",
    "3654": "Ġ6:16/mi.",
    "3655": "Ġ10:07",
    "3656": "Ġ576",
    "3657": "Ġ11:28.",
    "3658": "Ġ8:58/mi.",
    "3659": "Ġ7:49",
    "3660": "Ġ8:00.",
    "3661": "Ġ6:23.",
    "3662": "Ġ7:40",
    "3663": "Ġ10:40/mi.",
    "3664": "Ġ11:49/mi.",
    "3665": "Ġ555",
    "3666": "Ġ10:28",
    "3667": "Ġ9:38/mi.",
    "3668": "Ġ6:53.",
    "3669": "Ġ12:07/mi.",
    "3670": "Ġ6:33.",
    "3671": "Ġ6:44",
    "3672": "Ġ10:03.",
    "3673": "Ġ8:15.",
    "3674": "Ġ10:02",
    "3675": "Ġ6:07/mi.",
    "3676": "Ġ6:08/mi.",
    "3677": "Ġ6:20/mi.",
    "3678": "Ġ7:57",
    "3679": "Ġ12:09.",
    "3680": "Ġ7:06.",
    "3681": "Ġ11:09.",
    "3682": "Ġ7:48.",
    "3683": "Ġ7:58/mi.",
    "3684": "Ġ7:35/mi.",
    "3685": "Ġ10:39.",
    "3686": "Ġ10:20",
    "3687": "Ġ785",
    "3688": "Ġ9:44.",
    "3689": "Ġ10:04",
    "3690": "Ġ10:43/mi.",
    "3691": "Ġ11:16.",
    "3692": "Ġ9:04/mi.",
    "3693": "Ġ8:04.",
    "3694": "Ġ8:06.",
    "3695": "Ġ9:25",
    "3696": "Ġ8:18.",
    "3697": "Ġ11:16",
    "3698": "Ġ632",
    "3699": "Ġ10:27.",
    "3700": "Ġ7:31/mi.",
    "3701": "Ġ10:38",
    "3702": "Ġ10:25/mi.",
    "3703": "Ġ619",
    "3704": "Ġ6:17",
    "3705": "Ġ6:11.",
    "3706": "Ġ5:57/mi.",
    "3707": "Ġ18.9mi",
    "3708": "Ġ6:12/mi.",
    "3709": "Ġ763",
    "3710": "Ġ703",
    "3711": "Ġ8:56.",
    "3712": "Ġ435",
    "3713": "Ġ8:40/mi.",
    "3714": "Ġ11:39.",
    "3715": "Ġ9:46/mi.",
    "3716": "Ġ10:41.",
    "3717": "Ġ9:44",
    "3718": "Ġ10:22/mi.",
    "3719": "Ġ8:45",
    "3720": "Ġ7:15",
    "3721": "Ġ10:36",
    "3722": "Ġ6:18.",
    "3723": "Ġ6:33",
    "3724": "Ġ582",
    "3725": "Ġ8:23",
    "3726": "Ġ11:08",
    "3727": "Ġ693",
    "3728": "Ġ7:29",
    "3729": "Ġ11:04.",
    "3730": "Ġ512",
    "3731": "Ġ9:49/mi.",
    "3732": "Ġ10:44.",
    "3733": "Ġ8:24",
    "3734": "Ġ10:05/mi.",
    "3735": "Ġ8:08",
    "3736": "Ġ6:38.",
    "3737": "Ġ7:05/mi.",
    "3738": "Ġ8:38/mi.",
    "3739": "Ġ11:11.",
    "3740": "Ġ414",
    "3741": "Ġ11:28",
    "3742": "Ġ7:08.",
    "3743": "Ġ10:48",
    "3744": "Ġ7:47",
    "3745": "Ġ9:29/mi.",
    "3746": "Ġ4.3mi",
    "3747": "Ġ16.5mi",
    "3748": "Ġ10:43",
    "3749": "Ġ7:29.",
    "3750": "Ġ11:15.",
    "3751": "Ġ9.47",
    "3752": "Ġ2.55",
    "3753": "Ġ2.02",
    "3754": "Ġ368",
    "3755": "Ġ2.24",
    "3756": "Ġ3.84",
    "3757": "Ġ9.15",
    "3758": "Ġ2.47",
    "3759": "Ġ8.53",
    "3760": "Ġ9.86",
    "3761": "Ġ9.51",
    "3762": "Ġ8.41",
    "3763": "Ġ468",
    "3764": "Ġ10.91",
    "3765": "Ġ7.64",
    "3766": "Ġ2.92",
    "3767": "Ġ352",
    "3768": "Ġ8.05",
    "3769": "Ġ2.48",
    "3770": "Ġ2.21",
    "3771": "Ġ15.82",
    "3772": "Ġ14.02",
    "3773": "Ġ2.68",
    "3774": "Ġ8.82",
    "3775": "Ġ2.14",
    "3776": "Ġ3.31",
    "3777": "Ġ20.18",
    "3778": "Ġ3.08",
    "3779": "Ġ3.33",
    "3780": "Ġ15.03",
    "3781": "Ġ9.03",
    "3782": "Ġ6.11",
    "3783": "Ġ17.14",
    "3784": "Ġ5:38/mi,",
    "3785": "Ġ19.87",
    "3786": "Ġ20.49",
    "3787": "Ġ12:18/mi,",
    "3788": "Ġ2023-10-2",
    "3789": "Ġ6.54",
    "3790": "Ġ3.25",
    "3791": "Ġ2.13",
    "3792": "Ġ325",
    "3793": "Ġ3.37",
    "3794": "Ġ272",
    "3795": "Ġ2.93",
    "3796": "Ġ9.76",
    "3797": "Ġ8.69",
    "3798": "Ġ308",
    "3799": "Ġ3.68",
    "3800": "Ġ9.21",
    "3801": "Ġ9.31",
    "3802": "Ġ2.25",
    "3803": "Ġ2026-10-2",
    "3804": "Ġ6.33",
    "3805": "Ġ11.45",
    "3806": "Ġ2.39",
    "3807": "Ġ9.42",
    "3808": "Ġ2.26",
    "3809": "Ġ9.12",
    "3810": "Ġ7.04",
    "3811": "Ġ335",
    "3812": "Ġ6.99",
    "3813": "Ġ3.95",
    "3814": "Ġ3.21",
    "3815": "Ġ2027-10-2",
    "3816": "Ġ13.76",
    "3817": "Ġ5.95",
    "3818": "Ġ11.88",
    "3819": "Ġ13.63",
    "3820": "Ġ15.91",
    "3821": "Ġ6.32",
    "3822": "Ġ2.96",
    "3823": "Ġ10.77",
    "3824": "Ġ2.18",
    "3825": "Ġ5:41/mi,",
    "3826": "Ġ7.33",
    "3827": "Ġ227",
    "3828": "Ġ14.61",
    "3829": "Ġ8.65",
    "3830": "Ġ10.88",
    "3831": "Ġ16.23",
    "3832": "Ġ12:12/mi,",
    "3833": "Ġ9.93",
    "3834": "Ġ20.92",
    "3835": "Ġ19.17",
    "3836": "Ġ2.38",
    "3837": "Ġ288",
    "3838": "Ġ8.87",
    "3839": "Ġ17.94",
    "3840": "Ġ363",
    "3841": "Ġ2.62",
    "3842": "Ġ10.53",
    "3843": "Ġ11.25",
    "3844": "Ġ346",
    "3845": "Ġ10.56",
    "3846": "Ġ353",
    "3847": "Ġ9.43",
    "3848": "Ġ8.22",
    "3849": "Ġ255",
    "3850": "Ġ2.98",
    "3851": "Ġ8.42",
    "3852": "Ġ11.33",
    "3853": "Ġ3.27",
    "3854": "Ġ5.21",
    "3855": "Ġ20.62",
    "3856": "Ġ17.32",
    "3857": "Ġ5:30/mi,",
    "3858": "Ġ3.05",
    "3859": "Ġ504",
    "3860": "Ġ2.89",
    "3861": "Ġ2.52",
    "3862": "Ġ12.87",
    "3863": "Ġ11.95",
    "3864": "Ġ9.96",
    "3865": "Ġ6.14",
    "3866": "Ġ7.42",
    "3867": "Ġ285",
    "3868": "Ġ5:24/mi,",
    "3869": "Ġ266",
    "3870": "Ġ3.98",
    "3871": "Ġ3.32",
    "3872": "Ġ16.09",
    "3873": "Ġ3.07",
    "3874": "Ġ443",
    "3875": "Ġ581",
    "3876": "Ġ10.01",
    "3877": "Ġ452",
    "3878": "Ġ299",
    "3879": "Ġ315",
    "3880": "Ġ403",
    "3881": "Ġ10.96",
    "3882": "Ġ8.75",
    "3883": "Ġ2.29",
    "3884": "Ġ578",
    "3885": "Ġ294",
    "3886": "Ġ378",
    "3887": "Ġ2.94",
    "3888": "Ġ8.56",
    "3889": "Ġ18.44",
    "3890": "Ġ487",
    "3891": "Ġ405",
    "3892": "Ġ2052-10-2",
    "3893": "Ġ389",
    "3894": "Ġ423",
    "3895": "Ġ3.76",
    "3896": "Ġ330",
    "3897": "Ġ337",
    "3898": "Ġ2061-10-2",
    "3899": "Ġ293",
    "3900": "Ġ490",
    "3901": "Ġ7:14.",
    "3902": "Ġ7:06/mi.",
    "3903": "Ġ10:25",
    "3904": "Ġ10:17.",
    "3905": "Ġ8:04/mi.",
    "3906": "Ġ5:55.",
    "3907": "Ġ552",
    "3908": "Ġ10:29/mi.",
    "3909": "Ġ9:13.",
    "3910": "Ġ528",
    "3911": "Ġ10:36/mi.",
    "3912": "Ġ588",
    "3913": "Ġ8:33.",
    "3914": "Ġ8:45.",
    "3915": "Ġ11:12/mi.",
    "3916": "Ġ9:42",
    "3917": "Ġ7:38/mi.",
    "3918": "Ġ11:35/mi.",
    "3919": "Ġ10:14/mi.",
    "3920": "Ġ10:30",
    "3921": "Ġ8:07.",
    "3922": "Ġ11:21",
    "3923": "Ġ769",
    "3924": "Ġ7:46",
    "3925": "Ġ8:28/mi.",
    "3926": "Ġ422",
    "3927": "Ġ743",
    "3928": "Ġ261",
    "3929": "Ġ11:02/mi.",
    "3930": "Ġ518",
    "3931": "Ġ9:14/mi.",
    "3932": "Ġ8:21",
    "3933": "Ġ11:23.",
    "3934": "Ġ615",
    "3935": "Ġ11:01.",
    "3936": "Ġ7:19",
    "3937": "Ġ10:24.",
    "3938": "Ġ7:36.",
    "3939": "Ġ11:27",
    "3940": "Ġ8:05.",
    "3941": "Ġ8:08/mi.",
    "3942": "Ġ636",
    "3943": "Ġ526",
    "3944": "Ġ8:50",
    "3945": "Ġ8:09/mi.",
    "3946": "Ġ6:36.",
    "3947": "Ġ6:48/mi.",
    "3948": "Ġ716",
    "3949": "Ġ6:51",
    "3950": "Ġ10:32",
    "3951": "Ġ6:44.",
    "3952": "Ġ8:14/mi.",
    "3953": "Ġ9:32",
    "3954": "Ġ9:18/mi.",
    "3955": "Ġ10:51.",
    "3956": "Ġ10:53.",
    "3957": "Ġ8:19.",
    "3958": "Ġ311",
    "3959": "Ġ9:51",
    "3960": "Ġ9:04.",
    "3961": "Ġ10:09",
    "3962": "Ġ10:36.",
    "3963": "Ġ7:49.",
    "3964": "Ġ593",
    "3965": "Ġ10:19",
    "3966": "Ġ7:38.",
    "3967": "Ġ8:14",
    "3968": "Ġ9:36",
    "3969": "Ġ641",
    "3970": "Ġ600",
    "3971": "Ġ10:50",
    "3972": "Ġ10:59/mi.",
    "3973": "Ġ10:05.",
    "3974": "Ġ7:31.",
    "3975": "Ġ9:08.",
    "3976": "Ġ11:52",
    "3977": "Ġ680",
    "3978": "Ġ686",
    "3979": "Ġ11:40.",
    "3980": "Ġ628",
    "3981": "Ġ7:39.",
    "3982": "Ġ6:17.",
    "3983": "Ġ8:12/mi.",
    "3984": "Ġ8:52",
    "3985": "Ġ10:26.",
    "3986": "Ġ6:19",
    "3987": "Ġ707",
    "3988": "Ġ6:38/mi.",
    "3989": "Ġ616",
    "3990": "Ġ11:07",
    "3991": "Ġ10:22",
    "3992": "Ġ7:44/mi.",
    "3993": "Ġ7:58",
    "3994": "Ġ11:45/mi.",
    "3995": "Ġ9:17.",
    "3996": "Ġ8:08.",
    "3997": "Ġ9:20",
    "3998": "Ġ441",
    "3999": "Ġ11:53",
    "4000": "Ġ10:06/mi.",
    "4001": "Ġ602",
    "4002": "Ġ6:16.",
    "4003": "Ġ6:09/mi.",
    "4004": "Ġ6:03",
    "4005": "Ġ11:54.",
    "4006": "Ġ9:11",
    "4007": "Ġ410",
    "4008": "Ġ8:37",
    "4009": "Ġ484",
    "4010": "Ġ7:59.",
    "4011": "Ġ496",
    "4012": "Ġ672",
    "4013": "Ġ7:51.",
    "4014": "Ġ8:59/mi.",
    "4015": "Ġ9:07/mi.",
    "4016": "Ġ6:09",
    "4017": "Ġ786",
    "4018": "Ġ7:11/mi.",
    "4019": "Ġ9:12/mi.",
    "4020": "Ġ630",
    "4021": "Ġ10:23.",
    "4022": "Ġ9:35.",
    "4023": "Ġ10:15.",
    "4024": "Ġ701",
    "4025": "Ġ418",
    "4026": "Ġ8:01.",
    "4027": "Ġ790",
    "4028": "Ġ9:10.",
    "4029": "Ġ7:25.",
    "4030": "Ġ643",
    "4031": "Ġ5:32/mi.",
    "4032": "Ġ10:40.",
    "4033": "Ġ7:25",
    "4034": "Ġ6:00/mi.",
    "4035": "Ġ9:06/mi.",
    "4036": "Ġ439",
    "4037": "Ġ10:19.",
    "4038": "Ġ9:13/mi.",
    "4039": "Ġ11:37.",
    "4040": "Ġ9:09",
    "4041": "Ġ6:18/mi.",
    "4042": "Ġ10:12.",
    "4043": "Ġ11:55.",
    "4044": "Ġ8:48/mi.",
    "4045": "Ġ689",
    "4046": "Ġ5:45",
    "4047": "Ġ10:06",
    "4048": "Ġ11:18",
    "4049": "Ġ9:47",
    "4050": "Ġ6:20.",
    "4051": "Ġ9:52",
    "4052": "Ġ8:34.",
    "4053": "Ġ6:28",
    "4054": "Ġ8:13",
    "4055": "Ġ538",
    "4056": "Ġ6:30/mi.",
    "4057": "Ġ747",
    "4058": "Ġ10:01/mi.",
    "4059": "Ġ8:23.",
    "4060": "Ġ7:16/mi.",
    "4061": "Ġ8:10/mi.",
    "4062": "Ġ9:52/mi.",
    "4063": "Ġ570",
    "4064": "Ġ10:56",
    "4065": "Ġ11:56.",
    "4066": "Ġ10:16",
    "4067": "Ġ6:24/mi.",
    "4068": "Ġ8:33",
    "4069": "Ġ6:05.",
    "4070": "Ġ357",
    "4071": "Ġ10:54/mi.",
    "4072": "Ġ725",
    "4073": "Ġ5:57.",
    "4074": "Ġ12:01.",
    "4075": "Ġ11:39",
    "4076": "Ġ10:19/mi.",
    "4077": "Ġ8:28",
    "4078": "Ġ8:05",
    "4079": "Ġ8:47.",
    "4080": "Ġ11:38",
    "4081": "Ġ8:31/mi.",
    "4082": "Ġ9:41.",
    "4083": "Ġ10:06.",
    "4084": "Ġ11:02.",
    "4085": "Ġ9:42/mi.",
    "4086": "Ġ7:39",
    "4087": "Ġ706",
    "4088": "Ġ10:32.",
    "4089": "Ġ6:18",
    "4090": "Ġ12:05",
    "4091": "Ġ603",
    "4092": "Ġ9:00.",
    "4093": "Ġ10:08/mi.",
    "4094": "Ġ5:50/mi.",
    "4095": "Ġ10:55",
    "4096": "Ġ11:52/mi.",
    "4097": "Ġ361",
    "4098": "Ġ9:48/mi.",
    "4099": "Ġ9:08/mi.",
    "4100": "Ġ7:26",
    "4101": "Ġ12:03",
    "4102": "Ġ9:04",
    "4103": "Ġ498",
    "4104": "Ġ7:26.",
    "4105": "Ġ11:41/mi.",
    "4106": "Ġ598",
    "4107": "Ġ7:46.",
    "4108": "Ġ501",
    "4109": "Ġ6:27.",
    "4110": "Ġ8:23/mi.",
    "4111": "Ġ10:42.",
    "4112": "Ġ6:50.",
    "4113": "Ġ11:25",
    "4114": "Ġ9:57/mi.",
    "4115": "Ġ6:23/mi.",
    "4116": "Ġ596",
    "4117": "Ġ5:57",
    "4118": "Ġ10:48.",
    "4119": "Ġ7:55/mi.",
    "4120": "Ġ11:46/mi.",
    "4121": "Ġ21.16",
    "4122": "Ġ16.92",
    "4123": "Ġ372",
    "4124": "Ġ11.76",
    "4125": "Ġ12:14/mi,",
    "4126": "Ġ14.53",
    "4127": "Ġ9.45",
    "4128": "Ġ5:28/mi,",
    "4129": "Ġ9.06",
    "4130": "Ġ13.53",
    "4131": "Ġ2.82",
    "4132": "Ġ4:4",
    "4133": "Ġ7.49",
    "4134": "Ġ345",
    "4135": "Ġ14.21",
    "4136": "Ġ20.45",
    "4137": "Ġ8.94",
    "4138": "Ġ18.01",
    "4139": "Ġ9.56",
    "4140": "Ġ7.97",
    "4141": "Ġ18.31",
    "4142": "Ġ11.09",
    "4143": "Ġ3.15",
    "4144": "Ġ3.24",
    "4145": "Ġ331",
    "4146": "Ġ12:33/mi,",
    "4147": "Ġ2.59",
    "4148": "Ġ2.06",
    "4149": "Ġ5.14",
    "4150": "Ġ12:08/mi,",
    "4151": "Ġ19.28",
    "4152": "Ġ18.23",
    "4153": "Ġ18.16",
    "4154": "Ġ3.11",
    "4155": "Ġ2.54",
    "4156": "Ġ12:48/mi,",
    "4157": "Ġ3.45",
    "4158": "Ġ13.23",
    "4159": "Ġ15.46",
    "4160": "Ġ2.53",
    "4161": "Ġ12:26/mi,",
    "4162": "Ġ16.88",
    "4163": "Ġ10.59",
    "4164": "Ġ3.99",
    "4165": "Ġ433",
    "4166": "Ġ20.78",
    "4167": "Ġ3.75",
    "4168": "Ġ21.97",
    "4169": "Ġ13.56",
    "4170": "Ġ21.23",
    "4171": "Ġ2.23",
    "4172": "Ġ453",
    "4173": "Ġ8.11",
    "4174": "Ġ20.31",
    "4175": "Ġ9.68",
    "4176": "Ġ10.49",
    "4177": "Ġ8.23",
    "4178": "Ġ14.16",
    "4179": "Ġ3.73",
    "4180": "Ġ9.53",
    "4181": "Ġ2.61",
    "4182": "Ġ329",
    "4183": "Ġ18.25",
    "4184": "Ġ446",
    "4185": "Ġ21.86",
    "4186": "Ġ16.12",
    "4187": "Ġ9.14",
    "4188": "Ġ9.11",
    "4189": "Ġ5:27/mi,",
    "4190": "Ġ5:35/mi,",
    "4191": "Ġ21.21",
    "4192": "Ġ277",
    "4193": "Ġ8.74",
    "4194": "Ġ2.76",
    "4195": "Ġ362",
    "4196": "Ġ10.61",
    "4197": "Ġ2.79",
    "4198": "Ġ3.91",
    "4199": "Ġ19.16",
    "4200": "Ġ5.22",
    "4201": "Ġ15.89",
    "4202": "Ġ20.95",
    "4203": "Ġ2.91",
    "4204": "Ġ9.62",
    "4205": "Ġ18.86",
    "4206": "Ġ348",
    "4207": "Ġ15.56",
    "4208": "Ġ19.86",
    "4209": "Ġ11.21",
    "4210": "Ġ19.43",
    "4211": "Ġ3.14",
    "4212": "Ġ3.18",
    "4213": "Ġ9.77",
    "4214": "Ġ13.17",
    "4215": "Ġ15.38",
    "4216": "Ġ8.45",
    "4217": "Ġ16.53",
    "4218": "Ġ5.64",
    "4219": "Ġ17.06",
    "4220": "Ġ307",
    "4221": "Ġ3.74",
    "4222": "Ġ2.99",
    "4223": "Ġ16.66",
    "4224": "Ġ19.31",
    "4225": "Ġ12:29/mi,",
    "4226": "Ġ3.42",
    "4227": "Ġ17.81",
    "4228": "Ġ3.38",
    "4229": "Ġ2.31",
    "4230": "Ġ20.35",
    "4231": "Ġ21.78",
    "4232": "Ġ19.98",
    "4233": "Ġ12.16",
    "4234": "Ġ19.61",
    "4235": "Ġ326",
    "4236": "Ġ19.42",
    "4237": "Ġ19.26",
    "4238": "Ġ14.27",
    "4239": "Ġ20.81",
    "4240": "Ġ247",
    "4241": "Ġ12:22/mi,",
    "4242": "Ġ21.56",
    "4243": "Ġ485",
    "4244": "Ġ8.97",
    "4245": "Ġ416",
    "4246": "Ġ14.14",
    "4247": "Ġ683",
    "4248": "Ġ601",
    "4249": "Ġ3.87",
    "4250": "Ġ458",
    "4251": "Ġ457",
    "4252": "Ġ3.12",
    "4253": "Ġ2.33",
    "4254": "Ġ5:48/mi,",
    "4255": "Ġ3.85",
    "4256": "Ġ366",
    "4257": "Ġ18.47",
    "4258": "Ġ9.38",
    "4259": "Ġ14.58",
    "4260": "Ġ338",
    "4261": "Ġ3.88",
    "4262": "Ġ3.19",
    "4263": "Ġ10.57",
    "4264": "Ġ3.69",
    "4265": "Ġ13.93",
    "4266": "Ġ13.52",
    "4267": "Ġ327",
    "4268": "Ġ365",
    "4269": "Ġ5.09",
    "4270": "Ġ12.44",
    "4271": "Ġ18.24",
    "4272": "Ġ18.53",
    "4273": "Ġ18.92",
    "4274": "Ġ20.65",
    "4275": "Ġ402",
    "4276": "Ġ304",
    "4277": "Ġ537",
    "4278": "Ġ354",
    "4279": "Ġ16.63",
    "4280": "Ġ8.76",
    "4281": "Ġ3.72",
    "4282": "Ġ2.72",
    "4283": "Ġ328",
    "4284": "Ġ17.45",
    "4285": "Ġ309",
    "4286": "Ġ625",
    "4287": "Ġ547",
    "4288": "Ġ12:17/mi,",
    "4289": "Ġ409",
    "4290": "Ġ314",
    "4291": "Ġ386",
    "4292": "Ġ292",
    "4293": "Ġ437",
    "4294": "Ġ9.54",
    "4295": "Ġ2.57",
    "4296": "Ġ399",
    "4297": "Ġ355",
    "4298": "Ġ2.08",
    "4299": "Ġ411",
    "4300": "Ġ574",
    "4301": "Ġ9.89",
    "4302": "Ġ369",
    "4303": "Ġ350",
    "4304": "Ġ3.97",
    "4305": "Ġ463",
    "4306": "Ġ438",
    "4307": "Ġ313",
    "4308": "Ġ8:17/mi.",
    "4309": "Ġ469",
    "4310": "Ġ726",
    "4311": "Ġ360",
    "4312": "Ġ8:04",
    "4313": "Ġ9:05",
    "4314": "Ġ8:00/mi.",
    "4315": "Ġ793",
    "4316": "Ġ12:18.",
    "4317": "Ġ12:04.",
    "4318": "Ġ624",
    "4319": "Ġ8:53.",
    "4320": "Ġ471",
    "4321": "Ġ656",
    "4322": "Ġ12:19",
    "4323": "Ġ567",
    "4324": "Ġ11:47/mi.",
    "4325": "Ġ6:02.",
    "4326": "Ġ7:47/mi.",
    "4327": "Ġ584",
    "4328": "Ġ9:51/mi.",
    "4329": "Ġ8:50/mi.",
    "4330": "Ġ7:42/mi.",
    "4331": "Ġ8:52.",
    "4332": "Ġ5:37/mi.",
    "4333": "Ġ11:31.",
    "4334": "Ġ6:01",
    "4335": "Ġ714",
    "4336": "Ġ569",
    "4337": "Ġ575",
    "4338": "Ġ8:30/mi.",
    "4339": "Ġ7:33.",
    "4340": "Ġ6:59",
    "4341": "Ġ9:54/mi.",
    "4342": "Ġ11:58/mi.",
    "4343": "Ġ11:43",
    "4344": "Ġ10:21.",
    "4345": "Ġ770",
    "4346": "Ġ712",
    "4347": "Ġ9:38",
    "4348": "Ġ10:18.",
    "4349": "Ġ406",
    "4350": "Ġ9:53.",
    "4351": "Ġ7:18",
    "4352": "Ġ356",
    "4353": "Ġ6:15",
    "4354": "Ġ424",
    "4355": "Ġ514",
    "4356": "Ġ8:58.",
    "4357": "Ġ10:57",
    "4358": "Ġ6:05/mi.",
    "4359": "Ġ788",
    "4360": "Ġ7:36",
    "4361": "Ġ12:03/mi.",
    "4362": "Ġ7:55",
    "4363": "Ġ10:18/mi.",
    "4364": "Ġ644",
    "4365": "Ġ5:55/mi.",
    "4366": "Ġ8:49.",
    "4367": "Ġ8:46.",
    "4368": "Ġ9:03/mi.",
    "4369": "Ġ373",
    "4370": "Ġ671",
    "4371": "Ġ9:21.",
    "4372": "Ġ573",
    "4373": "Ġ7:01/mi.",
    "4374": "Ġ11:02",
    "4375": "Ġ10:17/mi.",
    "4376": "Ġ688",
    "4377": "Ġ729",
    "4378": "Ġ6:30.",
    "4379": "Ġ9:19.",
    "4380": "Ġ8:46",
    "4381": "Ġ12:11",
    "4382": "Ġ12:34/mi.",
    "4383": "Ġ11:40/mi.",
    "4384": "Ġ6:36/mi.",
    "4385": "Ġ11:26/mi.",
    "4386": "Ġ10:56.",
    "4387": "Ġ472",
    "4388": "Ġ9:00/mi.",
    "4389": "Ġ674",
    "4390": "Ġ8:47/mi.",
    "4391": "Ġ12:02.",
    "4392": "Ġ10:42/mi.",
    "4393": "Ġ577",
    "4394": "Ġ10:44",
    "4395": "Ġ558",
    "4396": "Ġ8:21/mi.",
    "4397": "Ġ11:47.",
    "4398": "Ġ503",
    "4399": "Ġ565",
    "4400": "Ġ502",
    "4401": "Ġ6:53/mi.",
    "4402": "Ġ9:42.",
    "4403": "Ġ9:48",
    "4404": "Ġ5:58/mi.",
    "4405": "Ġ7:14",
    "4406": "Ġ653",
    "4407": "Ġ794",
    "4408": "Ġ10:55.",
    "4409": "Ġ654",
    "4410": "Ġ9:28.",
    "4411": "Ġ541",
    "4412": "Ġ8:16",
    "4413": "Ġ6:15.",
    "4414": "Ġ9:53/mi.",
    "4415": "Ġ542",
    "4416": "Ġ9:06.",
    "4417": "Ġ7:53/mi.",
    "4418": "Ġ11:50/mi.",
    "4419": "Ġ9:17",
    "4420": "Ġ8:29/mi.",
    "4421": "Ġ11:05",
    "4422": "Ġ507",
    "4423": "Ġ9:53",
    "4424": "Ġ10:59.",
    "4425": "Ġ11:50.",
    "4426": "Ġ563",
    "4427": "Ġ7:18/mi.",
    "4428": "Ġ10:00.",
    "4429": "Ġ10:50/mi.",
    "4430": "Ġ10:51",
    "4431": "Ġ633",
    "4432": "Ġ10:53/mi.",
    "4433": "Ġ10:07.",
    "4434": "Ġ11:52.",
    "4435": "Ġ12:00",
    "4436": "Ġ523",
    "4437": "Ġ8:34/mi.",
    "4438": "Ġ658",
    "4439": "Ġ9:24",
    "4440": "Ġ8:36",
    "4441": "Ġ505",
    "4442": "Ġ11:29",
    "4443": "Ġ11:42/mi.",
    "4444": "Ġ511",
    "4445": "Ġ6:13/mi.",
    "4446": "Ġ7:30",
    "4447": "Ġ6:47/mi.",
    "4448": "Ġ771",
    "4449": "Ġ738",
    "4450": "Ġ8:27.",
    "4451": "Ġ7:33",
    "4452": "Ġ7:06",
    "4453": "Ġ11:19.",
    "4454": "Ġ637",
    "4455": "Ġ6:28/mi.",
    "4456": "Ġ677",
    "4457": "Ġ557",
    "4458": "Ġ718",
    "4459": "Ġ11:51/mi.",
    "4460": "Ġ8:36/mi.",
    "4461": "Ġ559",
    "4462": "Ġ11:30.",
    "4463": "Ġ5:51/mi.",
    "4464": "Ġ8:14.",
    "4465": "Ġ9:23",
    "4466": "Ġ665",
    "4467": "Ġ428",
    "4468": "Ġ8:49",
    "4469": "Ġ618",
    "4470": "Ġ6:41.",
    "4471": "Ġ421",
    "4472": "Ġ667",
    "4473": "Ġ544",
    "4474": "Ġ6:12",
    "4475": "Ġ8:06/mi.",
    "4476": "Ġ9:57",
    "4477": "Ġ8:13.",
    "4478": "Ġ9:18.",
    "4479": "Ġ9:51.",
    "4480": "Ġ10:35/mi.",
    "4481": "Ġ11:08.",
    "4482": "Ġ10:31",
    "4483": "Ġ6:01.",
    "4484": "Ġ799",
    "4485": "Ġ11:51",
    "4486": "Ġ11:27/mi.",
    "4487": "Ġ755",
    "4488": "Ġ9:47/mi.",
    "4489": "Ġ8:12.",
    "4490": "Ġ594",
    "4491": "Ġ11:23/mi.",
    "4492": "Ġ678",
    "4493": "Ġ8:39",
    "4494": "Ġ646",
    "4495": "Ġ7:53.",
    "4496": "Ġ532",
    "4497": "Ġ376",
    "4498": "Ġ6:51.",
    "4499": "Ġ7:11.",
    "4500": "Ġ12:05.",
    "4501": "Ġ5:34",
    "4502": "Ġ697",
    "4503": "Ġ11:34.",
    "4504": "Ġ9:11.",
    "4505": "Ġ9:47.",
    "4506": "Ġ5:54",
    "4507": "Ġ396",
    "4508": "Ġ6:04/mi.",
    "4509": "Ġ8:32/mi.",
    "4510": "Ġ6:41/mi.",
    "4511": "Ġ9:33.",
    "4512": "Ġ12:03.",
    "4513": "Ġ626",
    "4514": "Ġ9:07",
    "4515": "Ġ8:32",
    "4516": "Ġ390",
    "4517": "Ġ735",
    "4518": "Ġ5:40",
    "4519": "Ġ642",
    "4520": "Ġ11:38/mi.",
    "4521": "Ġ6:26",
    "4522": "Ġ9:22.",
    "4523": "Ġ10:57/mi.",
    "4524": "Ġ12:15/mi.",
    "4525": "Ġ6:12.",
    "4526": "Ġ6:29/mi.",
    "4527": "Ġ7:03.",
    "4528": "Ġ715",
    "4529": "Ġ7:38",
    "4530": "Ġ6:37",
    "4531": "Ġ617",
    "4532": "Ġ724",
    "4533": "Ġ7:33/mi.",
    "4534": "Ġ696",
    "4535": "Ġ673",
    "4536": "Ġ6:02",
    "4537": "Ġ8:57",
    "4538": "Ġ450",
    "4539": "Ġ8:35.",
    "4540": "Ġ668",
    "4541": "Ġ675",
    "4542": "Ġ464",
    "4543": "Ġ10:43.",
    "4544": "Ġ11:32.",
    "4545": "Ġ407",
    "4546": "Ġ12:31",
    "4547": "Ġ18.78",
    "4548": "Ġ12.18",
    "4549": "Ġ12:23/mi,",
    "4550": "Ġ13.26",
    "4551": "Ġ14.31",
    "4552": "Ġ2.28",
    "4553": "Ġ16.51",
    "4554": "Ġ17.65",
    "4555": "Ġ13.43",
    "4556": "Ġ17.69",
    "4557": "Ġ20.19",
    "4558": "Ġ19.03",
    "4559": "Ġ8.06",
    "4560": "Ġ17.11",
    "4561": "Ġ12.47",
    "4562": "Ġ12.42",
    "4563": "Ġ21.34",
    "4564": "Ġ20.36",
    "4565": "Ġ13.29",
    "4566": "Ġ15.58",
    "4567": "Ġ3.82",
    "4568": "Ġ21.59",
    "4569": "Ġ18.85",
    "4570": "Ġ17.08",
    "4571": "Ġ16.78",
    "4572": "Ġ15.83",
    "4573": "Ġ8.09",
    "4574": "Ġ21.77",
    "4575": "Ġ13.59",
    "4576": "Ġ13.54",
    "4577": "Ġ15.72",
    "4578": "Ġ16.11",
    "4579": "Ġ13.33",
    "4580": "Ġ14.79",
    "4581": "Ġ18.12",
    "4582": "Ġ2.51",
    "4583": "Ġ21.15",
    "4584": "Ġ17.56",
    "4585": "Ġ18.74",
    "4586": "Ġ392",
    "4587": "Ġ20.76",
    "4588": "Ġ17.16",
    "4589": "Ġ5:29/mi,",
    "4590": "Ġ21.87",
    "4591": "Ġ21.22",
    "4592": "Ġ15.63",
    "4593": "Ġ18.89",
    "4594": "Ġ10.41",
    "4595": "Ġ21.26",
    "4596": "Ġ15.21",
    "4597": "Ġ430",
    "4598": "Ġ16.56",
    "4599": "Ġ587",
    "4600": "Ġ16.22",
    "4601": "Ġ18.08",
    "4602": "Ġ15.49",
    "4603": "Ġ18.49",
    "4604": "Ġ17.43",
    "4605": "Ġ21.05",
    "4606": "Ġ12.06",
    "4607": "Ġ16.76",
    "4608": "Ġ20.87",
    "4609": "Ġ5.32",
    "4610": "Ġ18.75",
    "4611": "Ġ5:11/mi,",
    "4612": "Ġ20.94",
    "4613": "Ġ21.19",
    "4614": "Ġ18.13",
    "4615": "Ġ14.35",
    "4616": "Ġ20.04",
    "4617": "Ġ12.25",
    "4618": "Ġ18.97",
    "4619": "Ġ20.52",
    "4620": "Ġ19.64",
    "4621": "Ġ14.04",
    "4622": "Ġ8.72",
    "4623": "Ġ18.52",
    "4624": "Ġ20.96",
    "4625": "Ġ15.55",
    "4626": "Ġ15.08",
    "4627": "Ġ9.63",
    "4628": "Ġ2.01",
    "4629": "Ġ17.27",
    "4630": "Ġ12:49/mi,",
    "4631": "Ġ12.59",
    "4632": "Ġ17.72",
    "4633": "Ġ5:36/mi,",
    "4634": "Ġ9.57",
    "4635": "Ġ13.78",
    "4636": "Ġ17.89",
    "4637": "Ġ5:51/mi,",
    "4638": "Ġ19.85",
    "4639": "Ġ16.85",
    "4640": "Ġ20.16",
    "4641": "Ġ15.71",
    "4642": "Ġ14.78",
    "4643": "Ġ3.16",
    "4644": "Ġ16.72",
    "4645": "Ġ13.72",
    "4646": "Ġ10.82",
    "4647": "Ġ14.33",
    "4648": "Ġ14.82",
    "4649": "Ġ375",
    "4650": "Ġ8.24",
    "4651": "Ġ12.64",
    "4652": "Ġ16.17",
    "4653": "Ġ5:15/mi,",
    "4654": "Ġ20.82",
    "4655": "Ġ4:5",
    "4656": "Ġ19.45",
    "4657": "Ġ21.11",
    "4658": "Ġ3.02",
    "4659": "Ġ20.44",
    "4660": "Ġ2.88",
    "4661": "Ġ534",
    "4662": "Ġ2.35",
    "4663": "Ġ17.61",
    "4664": "Ġ321",
    "4665": "Ġ19.51",
    "4666": "Ġ17.78",
    "4667": "Ġ320",
    "4668": "Ġ14.69",
    "4669": "Ġ15.51",
    "4670": "Ġ21.35",
    "4671": "Ġ7.79",
    "4672": "Ġ2.78",
    "4673": "Ġ3.56",
    "4674": "Ġ289",
    "4675": "Ġ12.12",
    "4676": "Ġ12.46",
    "4677": "Ġ21.04",
    "4678": "Ġ14.08",
    "4679": "Ġ13.67",
    "4680": "Ġ18.84",
    "4681": "Ġ16.89",
    "4682": "Ġ9.88",
    "4683": "Ġ2.84",
    "4684": "Ġ20.66",
    "4685": "Ġ12.02",
    "4686": "Ġ12.29",
    "4687": "Ġ2.37",
    "4688": "Ġ18.26",
    "4689": "Ġ10.34",
    "4690": "Ġ12:34/mi,",
    "4691": "Ġ16.93",
    "4692": "Ġ15.88",
    "4693": "Ġ12.79",
    "4694": "Ġ3.64",
    "4695": "Ġ15.85",
    "4696": "Ġ15.01",
    "4697": "Ġ17.25",
    "4698": "Ġ2.11",
    "4699": "Ġ20.12",
    "4700": "Ġ2.85",
    "4701": "Ġ16.41",
    "4702": "Ġ14.03",
    "4703": "Ġ20.68",
    "4704": "Ġ20.25",
    "4705": "Ġ384",
    "4706": "Ġ12:44/mi,",
    "4707": "Ġ9.69",
    "4708": "Ġ13.92",
    "4709": "Ġ15.76",
    "4710": "Ġ13.88",
    "4711": "Ġ17.46",
    "4712": "Ġ12.14",
    "4713": "Ġ14.97",
    "4714": "Ġ15.75",
    "4715": "Ġ2.71",
    "4716": "Ġ16.34",
    "4717": "Ġ18.22",
    "4718": "Ġ21.82",
    "4719": "Ġ19.62",
    "4720": "Ġ3.49",
    "4721": "Ġ17.09",
    "4722": "Ġ13.25",
    "4723": "Ġ12.76",
    "4724": "Ġ3.46",
    "4725": "Ġ14.64",
    "4726": "Ġ20.02",
    "4727": "Ġ16.01",
    "4728": "Ġ17.31",
    "4729": "Ġ13.06",
    "4730": "Ġ13.87",
    "4731": "Ġ397",
    "4732": "Ġ14.01",
    "4733": "Ġ5:31/mi,",
    "4734": "Ġ13.91",
    "4735": "Ġ3.28",
    "4736": "Ġ18.98",
    "4737": "Ġ18.05",
    "4738": "Ġ12:42/mi,",
    "4739": "Ġ10.02",
    "4740": "Ġ17.83",
    "4741": "Ġ12.95",
    "4742": "Ġ13:",
    "4743": "Ġ13:0",
    "4744": "Ġ21.65",
    "4745": "Ġ18.72",
    "4746": "Ġ18.21",
    "4747": "Ġ17.87",
    "4748": "Ġ2.58",
    "4749": "Ġ18.15",
    "4750": "Ġ16.67",
    "4751": "Ġ20.43",
    "4752": "Ġ18.43",
    "4753": "Ġ13.09",
    "4754": "Ġ17.36",
    "4755": "Ġ12.88",
    "4756": "Ġ13.64",
    "4757": "Ġ16.77",
    "4758": "Ġ15.93",
    "4759": "Ġ3.89",
    "4760": "Ġ12.11",
    "4761": "Ġ20.32",
    "4762": "Ġ15.33",
    "4763": "Ġ3.61",
    "4764": "Ġ19.88",
    "4765": "Ġ14.42",
    "4766": "Ġ16.69",
    "4767": "Ġ13.95",
    "4768": "Ġ12.17",
    "4769": "Ġ12.62",
    "4770": "Ġ2.75",
    "4771": "Ġ15.17",
    "4772": "Ġ20.37",
    "4773": "Ġ17.49",
    "4774": "Ġ3.44",
    "4775": "Ġ19.74",
    "4776": "Ġ13.45",
    "4777": "Ġ2.64",
    "4778": "Ġ3.01",
    "4779": "Ġ19.21",
    "4780": "Ġ14.77",
    "4781": "Ġ20.99",
    "4782": "Ġ12.32",
    "4783": "Ġ3.41",
    "4784": "Ġ12.89",
    "4785": "Ġ5:17/mi,",
    "4786": "Ġ20.73",
    "4787": "Ġ377",
    "4788": "Ġ3.03",
    "4789": "Ġ19.84",
    "4790": "Ġ3.47",
    "4791": "Ġ12.38",
    "4792": "Ġ11.72",
    "4793": "Ġ19.68",
    "4794": "Ġ5:16/mi,",
    "4795": "Ġ15.67",
    "4796": "Ġ13.07",
    "4797": "Ġ17.29",
    "4798": "Ġ387",
    "4799": "Ġ3.09",
    "4800": "Ġ5:22/mi,",
    "4801": "Ġ445",
    "4802": "Ġ14.34",
    "4803": "Ġ13.19",
    "4804": "Ġ12.15",
    "4805": "Ġ561",
    "4806": "Ġ12:36/mi,",
    "4807": "Ġ303",
    "4808": "Ġ585",
    "4809": "Ġ11:06.",
    "4810": "Ġ704",
    "4811": "Ġ12:15.",
    "4812": "Ġ6:06.",
    "4813": "Ġ695",
    "4814": "Ġ442",
    "4815": "Ġ12:30/mi.",
    "4816": "Ġ11:47",
    "4817": "Ġ11:06",
    "4818": "Ġ11:35",
    "4819": "Ġ9:14",
    "4820": "Ġ652",
    "4821": "Ġ752",
    "4822": "Ġ8:38.",
    "4823": "Ġ6:26.",
    "4824": "Ġ11:48/mi.",
    "4825": "Ġ8:42",
    "4826": "Ġ9:03",
    "4827": "Ġ287",
    "4828": "Ġ5:56/mi.",
    "4829": "Ġ513",
    "4830": "Ġ732",
    "4831": "Ġ9:21",
    "4832": "Ġ9:32.",
    "4833": "Ġ11:58.",
    "4834": "Ġ5:25/mi.",
    "4835": "Ġ6:23",
    "4836": "Ġ635",
    "4837": "Ġ11:21/mi.",
    "4838": "Ġ8:39/mi.",
    "4839": "Ġ548",
    "4840": "Ġ11:56/mi.",
    "4841": "Ġ710",
    "4842": "Ġ694",
    "4843": "Ġ7:18.",
    "4844": "Ġ488",
    "4845": "Ġ621",
    "4846": "Ġ10:50.",
    "4847": "Ġ11:55/mi.",
    "4848": "Ġ11:17",
    "4849": "Ġ12:05/mi.",
    "4850": "Ġ535",
    "4851": "Ġ426",
    "4852": "Ġ9:27",
    "4853": "Ġ6:35.",
    "4854": "Ġ562",
    "4855": "Ġ322",
    "4856": "Ġ10:14.",
    "4857": "Ġ382",
    "4858": "Ġ8:51",
    "4859": "Ġ11:32",
    "4860": "Ġ11:23",
    "4861": "Ġ767",
    "4862": "Ġ6:14.",
    "4863": "Ġ11:50",
    "4864": "Ġ8:25.",
    "4865": "Ġ10:12",
    "4866": "Ġ6:53",
    "4867": "Ġ12:39/mi.",
    "4868": "Ġ8:20/mi.",
    "4869": "Ġ10:54.",
    "4870": "Ġ713",
    "4871": "Ġ11:48",
    "4872": "Ġ459",
    "4873": "Ġ499",
    "4874": "Ġ10:42",
    "4875": "Ġ11:51.",
    "4876": "Ġ622",
    "4877": "Ġ550",
    "4878": "Ġ783",
    "4879": "Ġ663",
    "4880": "Ġ8:43",
    "4881": "Ġ614",
    "4882": "Ġ7:36/mi.",
    "4883": "Ġ5:46/mi.",
    "4884": "Ġ685",
    "4885": "Ġ519",
    "4886": "Ġ10:57.",
    "4887": "Ġ8:02.",
    "4888": "Ġ381",
    "4889": "Ġ748",
    "4890": "Ġ723",
    "4891": "Ġ6:10/mi.",
    "4892": "Ġ475",
    "4893": "Ġ6:11",
    "4894": "Ġ5:49",
    "4895": "Ġ5:47/mi.",
    "4896": "Ġ5:52.",
    "4897": "Ġ610",
    "4898": "Ġ8:41",
    "4899": "Ġ11:14.",
    "4900": "Ġ664",
    "4901": "Ġ347",
    "4902": "Ġ5:39.",
    "4903": "Ġ5:50",
    "4904": "Ġ10:29.",
    "4905": "Ġ9:12",
    "4906": "Ġ12:09",
    "4907": "Ġ8:03",
    "4908": "Ġ465",
    "4909": "Ġ8:44.",
    "4910": "Ġ482",
    "4911": "Ġ5:47",
    "4912": "Ġ419",
    "4913": "Ġ11:17.",
    "4914": "Ġ620",
    "4915": "Ġ11:36.",
    "4916": "Ġ6:03/mi.",
    "4917": "Ġ731",
    "4918": "Ġ8:53/mi.",
    "4919": "Ġ666",
    "4920": "Ġ8:54.",
    "4921": "Ġ536",
    "4922": "Ġ5:54/mi.",
    "4923": "Ġ508",
    "4924": "Ġ10:47/mi.",
    "4925": "Ġ8:02/mi.",
    "4926": "Ġ12:10.",
    "4927": "Ġ7:49/mi.",
    "4928": "Ġ711",
    "4929": "Ġ12:14.",
    "4930": "Ġ756",
    "4931": "Ġ5:43.",
    "4932": "Ġ5:44/mi.",
    "4933": "Ġ5:45/mi.",
    "4934": "Ġ478",
    "4935": "Ġ10:59",
    "4936": "Ġ5:51",
    "4937": "Ġ595",
    "4938": "Ġ5:34.",
    "4939": "Ġ12:01/mi.",
    "4940": "Ġ6:08.",
    "4941": "Ġ10:23/mi.",
    "4942": "Ġ604",
    "4943": "Ġ11:44/mi.",
    "4944": "Ġ12:22/mi.",
    "4945": "Ġ5:53",
    "4946": "Ġ649",
    "4947": "Ġ11:12.",
    "4948": "Ġ10:21/mi.",
    "4949": "Ġ8:17.",
    "4950": "Ġ5:50.",
    "4951": "Ġ657",
    "4952": "Ġ5:25.",
    "4953": "Ġ700",
    "4954": "Ġ6:13",
    "4955": "Ġ10:47",
    "4956": "Ġ609",
    "4957": "Ġ765",
    "4958": "Ġ629",
    "4959": "Ġ640",
    "4960": "Ġ483",
    "4961": "Ġ776",
    "4962": "Ġ5:43",
    "4963": "Ġ524",
    "4964": "Ġ781",
    "4965": "Ġ7:56",
    "4966": "Ġ9:59.",
    "4967": "Ġ759",
    "4968": "Ġ754",
    "4969": "Ġ698",
    "4970": "Ġ480",
    "4971": "Ġ413",
    "4972": "Ġ7:32",
    "4973": "Ġ5:52",
    "4974": "Ġ533",
    "4975": "Ġ12:13/mi.",
    "4976": "Ġ650",
    "4977": "Ġ8:03.",
    "4978": "Ġ549",
    "4979": "Ġ12:39",
    "4980": "Ġ476",
    "4981": "Ġ692",
    "4982": "Ġ12:10",
    "4983": "Ġ489",
    "4984": "Ġ8:54",
    "4985": "Ġ8:30.",
    "4986": "Ġ779",
    "4987": "Ġ5:43/mi.",
    "4988": "Ġ5:53.",
    "4989": "Ġ705",
    "4990": "Ġ529",
    "4991": "Ġ766",
    "4992": "Ġ497",
    "4993": "Ġ7:21/mi.",
    "4994": "Ġ7:59",
    "4995": "Ġ8:36.",
    "4996": "Ġ750",
    "4997": "Ġ579",
    "4998": "Ġ11:57.",
    "4999": "Ġ462",
    "5000": "Ġ12:07.",
    "5001": "Ġ5:39/mi.",
    "5002": "Ġ734",
    "5003": "Ġ12:49",
    "5004": "Ġ543",
    "5005": "Ġ8:32.",
    "5006": "Ġ11:58",
    "5007": "Ġ8:01/mi.",
    "5008": "Ġ522",
    "5009": "Ġ613",
    "5010": "Ġ6:01/mi.",
    "5011": "Ġ11:36",
    "5012": "Ġ7:08/mi.",
    "5013": "Ġ11:33.",
    "5014": "Ġ530",
    "5015": "Ġ566",
    "5016": "Ġ639",
    "5017": "Ġ420",
    "5018": "Ġ6:34",
    "5019": "Ġ8:47",
    "5020": "Ġ12:08.",
    "5021": "Ġ5:42/mi.",
    "5022": "Ġ9:29.",
    "5023": "Ġ8:44/mi.",
    "5024": "Ġ11:07.",
    "5025": "Ġ670",
    "5026": "Ġ780",
    "5027": "Ġ477",
    "5028": "Ġ699",
    "5029": "Ġ681",
    "5030": "Ġ12:24.",
    "5031": "Ġ660",
    "5032": "Ġ7:23.",
    "5033": "Ġ669",
    "5034": "Ġ521",
    "5035": "Ġ7:44.",
    "5036": "Ġ2020-01-01:",
    "5037": "Ġ2020-01-02:",
    "5038": "Ġ2020-01-05:",
    "5039": "Ġ2020-01-06:",
    "5040": "Ġ2020-01-08:",
    "5041": "Ġ2020-01-10:",
    "5042": "Ġ2020-01-11:",
    "5043": "Ġ2020-01-12:",
    "5044": "Ġ2020-01-13:",
    "5045": "Ġ2020-01-15:",
    "5046": "Ġ2020-01-16:",
    "5047": "Ġ2020-01-19:",
    "5048": "Ġ2020-01-20:",
    "5049": "Ġ2020-01-21:",
    "5050": "Ġ2020-01-24:",
    "5051": "Ġ2020-01-25:",
    "5052": "Ġ2020-01-27:",
    "5053": "Ġ2020-01-28:",
    "5054": "Ġ2020-01-29:",
    "5055": "Ġ2020-01-30:",
    "5056": "Ġ19.13",
    "5057": "Ġ2020-01-31:",
    "5058": "Ġ2020-02-01:",
    "5059": "Ġ2020-02-03:",
    "5060": "Ġ2020-02-04:",
    "5061": "Ġ2020-02-05:",
    "5062": "Ġ2020-02-08:",
    "5063": "Ġ2020-02-10:",
    "5064": "Ġ2020-02-11:",
    "5065": "Ġ12.74",
    "5066": "Ġ2020-02-14:",
    "5067": "Ġ2020-02-15:",
    "5068": "Ġ2020-02-17:",
    "5069": "Ġ2020-02-20:",
    "5070": "Ġ2020-02-22:",
    "5071": "Ġ2020-02-23:",
    "5072": "Ġ2020-02-24:",
    "5073": "Ġ2020-02-27:",
    "5074": "Ġ2020-02-28:",
    "5075": "Ġ2020-02-29:",
    "5076": "Ġ2020-03-03:",
    "5077": "Ġ2020-03-05:",
    "5078": "Ġ2020-03-06:",
    "5079": "Ġ2020-03-07:",
    "5080": "Ġ2020-03-08:",
    "5081": "Ġ19.81",
    "5082": "Ġ2020-03-10:",
    "5083": "Ġ2020-03-11:",
    "5084": "Ġ2020-03-13:",
    "5085": "Ġ2020-03-14:",
    "5086": "Ġ2020-03-15:",
    "5087": "Ġ2020-03-18:",
    "5088": "Ġ17.82",
    "5089": "Ġ2020-03-19:",
    "5090": "Ġ2020-03-21:",
    "5091": "Ġ2020-03-23:",
    "5092": "Ġ2020-03-25:",
    "5093": "Ġ2020-03-26:",
    "5094": "Ġ2020-03-28:",
    "5095": "Ġ2020-03-29:",
    "5096": "Ġ2020-03-30:",
    "5097": "Ġ2020-04-02:",
    "5098": "Ġ2020-04-03:",
    "5099": "Ġ2020-04-04:",
    "5100": "Ġ2020-04-06:",
    "5101": "Ġ2020-04-07:",
    "5102": "Ġ20.53",
    "5103": "Ġ2020-04-09:",
    "5104": "Ġ2020-04-11:",
    "5105": "Ġ2020-04-14:",
    "5106": "Ġ2020-04-15:",
    "5107": "Ġ2020-04-17:",
    "5108": "Ġ2020-04-19:",
    "5109": "Ġ2020-04-21:",
    "5110": "Ġ2020-04-22:",
    "5111": "Ġ2020-04-24:",
    "5112": "Ġ2020-04-27:",
    "5113": "Ġ2020-04-28:",
    "5114": "Ġ2020-04-29:",
    "5115": "Ġ2020-05-01:",
    "5116": "Ġ2020-05-04:",
    "5117": "Ġ2020-05-05:",
    "5118": "Ġ2020-05-06:",
    "5119": "Ġ2020-05-08:",
    "5120": "Ġ2020-05-10:",
    "5121": "Ġ2020-05-12:",
    "5122": "Ġ2020-05-13:",
    "5123": "Ġ2020-05-14:",
    "5124": "Ġ2020-05-16:",
    "5125": "Ġ2020-05-17:",
    "5126": "Ġ2020-05-18:",
    "5127": "Ġ2020-05-21:",
    "5128": "Ġ2020-05-23:",
    "5129": "Ġ2020-05-24:",
    "5130": "Ġ2020-05-25:",
    "5131": "Ġ2020-05-26:",
    "5132": "Ġ2020-05-29:",
    "5133": "Ġ2020-05-30:",
    "5134": "Ġ2020-05-31:",
    "5135": "Ġ2020-06-01:",
    "5136": "Ġ2020-06-02:",
    "5137": "Ġ2020-06-03:",
    "5138": "Ġ2020-06-06:",
    "5139": "Ġ2020-06-09:",
    "5140": "Ġ2020-06-12:",
    "5141": "Ġ2020-06-14:",
    "5142": "Ġ2020-06-17:",
    "5143": "Ġ2020-06-19:",
    "5144": "Ġ2020-06-21:",
    "5145": "Ġ2020-06-24:",
    "5146": "Ġ2020-06-27:",
    "5147": "Ġ2020-06-28:",
    "5148": "Ġ2020-06-29:",
    "5149": "Ġ2020-06-30:",
    "5150": "Ġ2020-07-02:",
    "5151": "Ġ2020-07-04:",
    "5152": "Ġ2020-07-05:",
    "5153": "Ġ2020-07-07:",
    "5154": "Ġ2020-07-09:",
    "5155": "Ġ2020-07-11:",
    "5156": "Ġ2020-07-14:",
    "5157": "Ġ2020-07-15:",
    "5158": "Ġ2020-07-18:",
    "5159": "Ġ2020-07-20:",
    "5160": "Ġ2020-07-21:",
    "5161": "Ġ2020-07-22:",
    "5162": "Ġ2020-07-25:",
    "5163": "Ġ2020-07-26:",
    "5164": "Ġ2020-07-28:",
    "5165": "Ġ2020-07-30:",
    "5166": "Ġ2020-07-31:",
    "5167": "Ġ2020-08-03:",
    "5168": "Ġ2020-08-05:",
    "5169": "Ġ2020-08-08:",
    "5170": "Ġ2020-08-09:",
    "5171": "Ġ2020-08-12:",
    "5172": "Ġ2020-08-13:",
    "5173": "Ġ2020-08-15:",
    "5174": "Ġ2020-08-16:",
    "5175": "Ġ2020-08-17:",
    "5176": "Ġ2020-08-18:",
    "5177": "Ġ2020-08-21:",
    "5178": "Ġ2020-08-22:",
    "5179": "Ġ2020-08-23:",
    "5180": "Ġ2020-08-24:",
    "5181": "Ġ2020-08-25:",
    "5182": "Ġ2020-08-26:",
    "5183": "Ġ2020-08-28:",
    "5184": "Ġ2020-08-29:",
    "5185": "Ġ2020-08-30:",
    "5186": "Ġ2020-09-01:",
    "5187": "Ġ2020-09-02:",
    "5188": "Ġ2020-09-05:",
    "5189": "Ġ2020-09-08:",
    "5190": "Ġ2020-09-09:",
    "5191": "Ġ2020-09-10:",
    "5192": "Ġ2020-09-12:",
    "5193": "Ġ2020-09-13:",
    "5194": "Ġ2020-09-14:",
    "5195": "Ġ2020-09-16:",
    "5196": "Ġ2020-09-17:",
    "5197": "Ġ2020-09-20:",
    "5198": "Ġ2020-09-22:",
    "5199": "Ġ2020-09-24:",
    "5200": "Ġ2020-09-25:",
    "5201": "Ġ2020-09-27:",
    "5202": "Ġ2020-09-28:",
    "5203": "Ġ2020-09-29:",
    "5204": "Ġ14.71",
    "5205": "Ġ2020-09-30:",
    "5206": "Ġ2020-10-03:",
    "5207": "Ġ2020-10-04:",
    "5208": "Ġ2020-10-07:",
    "5209": "Ġ2020-10-09:",
    "5210": "Ġ2020-10-10:",
    "5211": "Ġ2020-10-11:",
    "5212": "Ġ2020-10-12:",
    "5213": "Ġ2020-10-15:",
    "5214": "Ġ2020-10-16:",
    "5215": "Ġ2020-10-18:",
    "5216": "Ġ2020-10-20:",
    "5217": "Ġ2020-10-21:",
    "5218": "Ġ2020-10-22:",
    "5219": "Ġ2020-10-23:",
    "5220": "Ġ2020-10-24:",
    "5221": "Ġ2020-10-26:",
    "5222": "Ġ2020-10-29:",
    "5223": "Ġ2020-10-30:",
    "5224": "Ġ2020-10-31:",
    "5225": "Ġ2020-11-01:",
    "5226": "Ġ2020-11-04:",
    "5227": "Ġ2020-11-07:",
    "5228": "Ġ2020-11-09:",
    "5229": "Ġ2020-11-11:",
    "5230": "Ġ2020-11-12:",
    "5231": "Ġ2020-11-13:",
    "5232": "Ġ2020-11-15:",
    "5233": "Ġ2020-11-17:",
    "5234": "Ġ2020-11-19:",
    "5235": "Ġ2020-11-20:",
    "5236": "Ġ2020-11-21:",
    "5237": "Ġ2020-11-23:",
    "5238": "Ġ2020-11-24:",
    "5239": "Ġ2020-11-27:",
    "5240": "Ġ2020-11-29:",
    "5241": "Ġ2020-11-30:",
    "5242": "Ġ2020-12-01:",
    "5243": "Ġ2020-12-02:",
    "5244": "Ġ2020-12-04:",
    "5245": "Ġ2020-12-05:",
    "5246": "Ġ2020-12-07:",
    "5247": "Ġ2020-12-08:",
    "5248": "Ġ2020-12-09:",
    "5249": "Ġ2020-12-11:",
    "5250": "Ġ2020-12-12:",
    "5251": "Ġ2020-12-15:",
    "5252": "Ġ2020-12-17:",
    "5253": "Ġ2020-12-19:",
    "5254": "Ġ2020-12-22:",
    "5255": "Ġ2020-12-24:",
    "5256": "Ġ2020-12-27:",
    "5257": "Ġ2020-12-29:",
    "5258": "Ġ2020-12-30:",
    "5259": "Ġ15.96",
    "5260": "Ġ2021-01-01:",
    "5261": "Ġ2021-01-03:",
    "5262": "Ġ2021-01-04:",
    "5263": "Ġ2021-01-07:",
    "5264": "Ġ2021-01-09:",
    "5265": "Ġ2021-01-12:",
    "5266": "Ġ2021-01-13:",
    "5267": "Ġ2021-01-14:",
    "5268": "Ġ2021-01-15:",
    "5269": "Ġ2021-01-17:",
    "5270": "Ġ2021-01-18:",
    "5271": "Ġ2021-01-20:",
    "5272": "Ġ2021-01-21:",
    "5273": "Ġ2021-01-22:",
    "5274": "Ġ2021-01-25:",
    "5275": "Ġ2021-01-27:",
    "5276": "Ġ2021-01-28:",
    "5277": "Ġ2021-01-29:",
    "5278": "Ġ2021-01-30:",
    "5279": "Ġ2021-01-31:",
    "5280": "Ġ2021-02-02:",
    "5281": "Ġ2021-02-04:",
    "5282": "Ġ2021-02-06:",
    "5283": "Ġ2021-02-07:",
    "5284": "Ġ2021-02-10:",
    "5285": "Ġ2021-02-13:",
    "5286": "Ġ2021-02-15:",
    "5287": "Ġ2021-02-16:",
    "5288": "Ġ2021-02-17:",
    "5289": "Ġ2021-02-20:",
    "5290": "Ġ2021-02-21:",
    "5291": "Ġ2021-02-22:",
    "5292": "Ġ2021-02-24:",
    "5293": "Ġ2021-02-25:",
    "5294": "Ġ4:45/mi,",
    "5295": "Ġ2021-02-27:",
    "5296": "Ġ2021-03-02:",
    "5297": "Ġ2021-03-03:",
    "5298": "Ġ2021-03-05:",
    "5299": "Ġ2021-03-06:",
    "5300": "Ġ2021-03-08:",
    "5301": "Ġ2021-03-10:",
    "5302": "Ġ2021-03-11:",
    "5303": "Ġ2021-03-12:",
    "5304": "Ġ2021-03-13:",
    "5305": "Ġ2021-03-15:",
    "5306": "Ġ2021-03-16:",
    "5307": "Ġ2021-03-17:",
    "5308": "Ġ2021-03-19:",
    "5309": "Ġ2021-03-20:",
    "5310": "Ġ2021-03-22:",
    "5311": "Ġ2021-03-23:",
    "5312": "Ġ2021-03-24:",
    "5313": "Ġ2021-03-25:",
    "5314": "Ġ2021-03-27:",
    "5315": "Ġ2021-03-29:",
    "5316": "Ġ21.81",
    "5317": "Ġ2021-03-31:",
    "5318": "Ġ2021-04-01:",
    "5319": "Ġ2021-04-03:",
    "5320": "Ġ2021-04-05:",
    "5321": "Ġ2021-04-07:",
    "5322": "Ġ2021-04-09:",
    "5323": "Ġ2021-04-10:",
    "5324": "Ġ2021-04-11:",
    "5325": "Ġ2021-04-14:",
    "5326": "Ġ2021-04-16:",
    "5327": "Ġ2021-04-18:",
    "5328": "Ġ2021-04-21:",
    "5329": "Ġ2021-04-22:",
    "5330": "Ġ2021-04-24:",
    "5331": "Ġ2021-04-25:",
    "5332": "Ġ2021-04-26:",
    "5333": "Ġ2021-04-29:",
    "5334": "Ġ2021-04-30:",
    "5335": "Ġ2021-05-01:",
    "5336": "Ġ2021-05-03:",
    "5337": "Ġ2021-05-04:",
    "5338": "Ġ2021-05-06:",
    "5339": "Ġ2021-05-07:",
    "5340": "Ġ2021-05-08:",
    "5341": "Ġ2021-05-10:",
    "5342": "Ġ2021-05-11:",
    "5343": "Ġ2021-05-12:",
    "5344": "Ġ2021-05-14:",
    "5345": "Ġ2021-05-16:",
    "5346": "Ġ2021-05-18:",
    "5347": "Ġ2021-05-20:",
    "5348": "Ġ2021-05-21:",
    "5349": "Ġ2021-05-23:",
    "5350": "Ġ2021-05-24:",
    "5351": "Ġ2021-05-25:",
    "5352": "Ġ2021-05-27:",
    "5353": "Ġ2021-05-29:",
    "5354": "Ġ2021-05-30:",
    "5355": "Ġ2021-06-01:",
    "5356": "Ġ2021-06-03:",
    "5357": "Ġ2021-06-04:",
    "5358": "Ġ2021-06-05:",
    "5359": "Ġ2021-06-06:",
    "5360": "Ġ2021-06-08:",
    "5361": "Ġ2021-06-09:",
    "5362": "Ġ2021-06-10:",
    "5363": "Ġ2021-06-11:",
    "5364": "Ġ2021-06-12:",
    "5365": "Ġ2021-06-13:",
    "5366": "Ġ2021-06-14:",
    "5367": "Ġ2021-06-16:",
    "5368": "Ġ2021-06-17:",
    "5369": "Ġ2021-06-20:",
    "5370": "Ġ2021-06-22:",
    "5371": "Ġ2021-06-23:",
    "5372": "Ġ2021-06-26:",
    "5373": "Ġ2021-06-28:",
    "5374": "Ġ2021-06-30:",
    "5375": "Ġ2021-07-02:",
    "5376": "Ġ2021-07-03:",
    "5377": "Ġ2021-07-04:",
    "5378": "Ġ2021-07-06:",
    "5379": "Ġ2021-07-08:",
    "5380": "Ġ2021-07-09:",
    "5381": "Ġ2021-07-11:",
    "5382": "Ġ2021-07-12:",
    "5383": "Ġ2021-07-13:",
    "5384": "Ġ2021-07-14:",
    "5385": "Ġ2021-07-17:",
    "5386": "Ġ2021-07-19:",
    "5387": "Ġ2021-07-20:",
    "5388": "Ġ2021-07-21:",
    "5389": "Ġ2021-07-22:",
    "5390": "Ġ2021-07-23:",
    "5391": "Ġ2021-07-26:",
    "5392": "Ġ2021-07-28:",
    "5393": "Ġ2021-07-30:",
    "5394": "Ġ2021-07-31:",
    "5395": "Ġ2021-08-03:",
    "5396": "Ġ2021-08-05:",
    "5397": "Ġ2021-08-06:",
    "5398": "Ġ2021-08-08:",
    "5399": "Ġ2021-08-09:",
    "5400": "Ġ2021-08-11:",
    "5401": "Ġ2021-08-12:",
    "5402": "Ġ2021-08-13:",
    "5403": "Ġ2021-08-15:",
    "5404": "Ġ2021-08-16:",
    "5405": "Ġ2021-08-17:",
    "5406": "Ġ2021-08-20:",
    "5407": "Ġ2021-08-22:",
    "5408": "Ġ2021-08-23:",
    "5409": "Ġ2021-08-25:",
    "5410": "Ġ2021-08-26:",
    "5411": "Ġ2021-08-29:",
    "5412": "Ġ2021-08-31:",
    "5413": "Ġ2021-09-01:",
    "5414": "Ġ2021-09-03:",
    "5415": "Ġ2021-09-04:",
    "5416": "Ġ14.57",
    "5417": "Ġ2021-09-06:",
    "5418": "Ġ2021-09-09:",
    "5419": "Ġ2021-09-10:",
    "5420": "Ġ2021-09-12:",
    "5421": "Ġ2021-09-14:",
    "5422": "Ġ2021-09-17:",
    "5423": "Ġ2021-09-18:",
    "5424": "Ġ2021-09-19:",
    "5425": "Ġ2021-09-20:",
    "5426": "Ġ2021-09-21:",
    "5427": "Ġ2021-09-22:",
    "5428": "Ġ2021-09-23:",
    "5429": "Ġ2021-09-25:",
    "5430": "Ġ2021-09-27:",
    "5431": "Ġ2021-09-28:",
    "5432": "Ġ2021-09-29:",
    "5433": "Ġ2021-10-02:",
    "5434": "Ġ2021-10-03:",
    "5435": "Ġ2021-10-06:",
    "5436": "Ġ2021-10-09:",
    "5437": "Ġ2021-10-10:",
    "5438": "Ġ2021-10-13:",
    "5439": "Ġ2021-10-14:",
    "5440": "Ġ2021-10-15:",
    "5441": "Ġ2021-10-16:",
    "5442": "Ġ2021-10-17:",
    "5443": "Ġ2021-10-18:",
    "5444": "Ġ2021-10-20:",
    "5445": "Ġ2021-10-21:",
    "5446": "Ġ2021-10-24:",
    "5447": "Ġ2021-10-25:",
    "5448": "Ġ2021-10-26:",
    "5449": "Ġ2021-10-28:",
    "5450": "Ġ2021-10-29:",
    "5451": "Ġ2021-10-30:",
    "5452": "Ġ2021-11-01:",
    "5453": "Ġ2021-11-03:",
    "5454": "Ġ21.14",
    "5455": "Ġ2021-11-06:",
    "5456": "Ġ2021-11-08:",
    "5457": "Ġ20.64",
    "5458": "Ġ2021-11-10:",
    "5459": "Ġ2021-11-11:",
    "5460": "Ġ2021-11-13:",
    "5461": "Ġ2021-11-14:",
    "5462": "Ġ2021-11-15:",
    "5463": "Ġ2021-11-16:",
    "5464": "Ġ2021-11-18:",
    "5465": "Ġ2021-11-20:",
    "5466": "Ġ2021-11-23:",
    "5467": "Ġ2021-11-24:",
    "5468": "Ġ2021-11-25:",
    "5469": "Ġ2021-11-27:",
    "5470": "Ġ2021-11-28:",
    "5471": "Ġ2021-11-29:",
    "5472": "Ġ2021-11-30:",
    "5473": "Ġ2021-12-01:",
    "5474": "Ġ2021-12-04:",
    "5475": "Ġ2021-12-05:",
    "5476": "Ġ2021-12-06:",
    "5477": "Ġ2021-12-08:",
    "5478": "Ġ2021-12-09:",
    "5479": "Ġ2021-12-10:",
    "5480": "Ġ2021-12-13:",
    "5481": "Ġ2021-12-15:",
    "5482": "Ġ2021-12-16:",
    "5483": "Ġ14.92",
    "5484": "Ġ2021-12-17:",
    "5485": "Ġ2021-12-18:",
    "5486": "Ġ2021-12-19:",
    "5487": "Ġ2021-12-20:",
    "5488": "Ġ2021-12-21:",
    "5489": "Ġ2021-12-22:",
    "5490": "Ġ2021-12-24:",
    "5491": "Ġ2021-12-26:",
    "5492": "Ġ2021-12-27:",
    "5493": "Ġ2021-12-28:",
    "5494": "Ġ2021-12-29:",
    "5495": "Ġ2021-12-31:",
    "5496": "Ġ2022-01-01:",
    "5497": "Ġ2022-01-03:",
    "5498": "Ġ2022-01-05:",
    "5499": "Ġ2022-01-06:",
    "5500": "Ġ2022-01-09:",
    "5501": "Ġ2022-01-12:",
    "5502": "Ġ2022-01-14:",
    "5503": "Ġ2022-01-16:",
    "5504": "Ġ2022-01-17:",
    "5505": "Ġ2022-01-18:",
    "5506": "Ġ2022-01-20:",
    "5507": "Ġ2022-01-23:",
    "5508": "Ġ2022-01-24:",
    "5509": "Ġ2022-01-25:",
    "5510": "Ġ2022-01-26:",
    "5511": "Ġ2022-01-28:",
    "5512": "Ġ2022-01-31:",
    "5513": "Ġ2022-02-02:",
    "5514": "Ġ2022-02-04:",
    "5515": "Ġ2022-02-05:",
    "5516": "Ġ2022-02-06:",
    "5517": "Ġ2022-02-07:",
    "5518": "Ġ2022-02-09:",
    "5519": "Ġ2022-02-10:",
    "5520": "Ġ2022-02-11:",
    "5521": "Ġ2022-02-12:",
    "5522": "Ġ2022-02-13:",
    "5523": "Ġ2022-02-15:",
    "5524": "Ġ2022-02-16:",
    "5525": "Ġ2022-02-17:",
    "5526": "Ġ2022-02-18:",
    "5527": "Ġ2022-02-21:",
    "5528": "Ġ2022-02-23:",
    "5529": "Ġ2022-02-26:",
    "5530": "Ġ2022-02-27:",
    "5531": "Ġ2022-02-28:",
    "5532": "Ġ2022-03-01:",
    "5533": "Ġ2022-03-04:",
    "5534": "Ġ2022-03-06:",
    "5535": "Ġ2022-03-07:",
    "5536": "Ġ2022-03-08:",
    "5537": "Ġ2022-03-09:",
    "5538": "Ġ2022-03-12:",
    "5539": "Ġ2022-03-14:",
    "5540": "Ġ2022-03-17:",
    "5541": "Ġ2022-03-19:",
    "5542": "Ġ2022-03-20:",
    "5543": "Ġ2022-03-22:",
    "5544": "Ġ2022-03-23:",
    "5545": "Ġ2022-03-26:",
    "5546": "Ġ2022-03-27:",
    "5547": "Ġ2022-03-28:",
    "5548": "Ġ2022-03-29:",
    "5549": "Ġ2022-03-30:",
    "5550": "Ġ2022-03-31:",
    "5551": "Ġ2022-04-02:",
    "5552": "Ġ2022-04-04:",
    "5553": "Ġ2022-04-05:",
    "5554": "Ġ2022-04-07:",
    "5555": "Ġ2022-04-08:",
    "5556": "Ġ2022-04-09:",
    "5557": "Ġ2022-04-10:",
    "5558": "Ġ2022-04-11:",
    "5559": "Ġ2022-04-12:",
    "5560": "Ġ2022-04-14:",
    "5561": "Ġ2022-04-16:",
    "5562": "Ġ2022-04-19:",
    "5563": "Ġ2022-04-21:",
    "5564": "Ġ2022-04-22:",
    "5565": "Ġ2022-04-23:",
    "5566": "Ġ2022-04-25:",
    "5567": "Ġ2022-04-27:",
    "5568": "Ġ2022-04-28:",
    "5569": "Ġ2022-05-01:",
    "5570": "Ġ2022-05-02:",
    "5571": "Ġ2022-05-04:",
    "5572": "Ġ2022-05-06:",
    "5573": "Ġ2022-05-07:",
    "5574": "Ġ2022-05-08:",
    "5575": "Ġ2022-05-10:",
    "5576": "Ġ2022-05-12:",
    "5577": "Ġ2022-05-13:",
    "5578": "Ġ2.43",
    "5579": "Ġ2022-05-14:",
    "5580": "Ġ2022-05-15:",
    "5581": "Ġ2022-05-16:",
    "5582": "Ġ2022-05-17:",
    "5583": "Ġ2022-05-18:",
    "5584": "Ġ2022-05-21:",
    "5585": "Ġ2022-05-24:",
    "5586": "Ġ2022-05-25:",
    "5587": "Ġ2022-05-26:",
    "5588": "Ġ2022-05-27:",
    "5589": "Ġ2022-05-28:",
    "5590": "Ġ2022-05-29:",
    "5591": "Ġ2022-05-31:",
    "5592": "Ġ2022-06-01:",
    "5593": "Ġ2022-06-03:",
    "5594": "Ġ2022-06-05:",
    "5595": "Ġ2022-06-06:",
    "5596": "Ġ2022-06-08:",
    "5597": "Ġ2022-06-09:",
    "5598": "Ġ2022-06-10:",
    "5599": "Ġ2022-06-12:",
    "5600": "Ġ2022-06-14:",
    "5601": "Ġ2022-06-16:",
    "5602": "Ġ2022-06-19:",
    "5603": "Ġ2022-06-20:",
    "5604": "Ġ2022-06-21:",
    "5605": "Ġ2022-06-22:",
    "5606": "Ġ2022-06-24:",
    "5607": "Ġ2022-06-27:",
    "5608": "Ġ21.33",
    "5609": "Ġ2022-06-28:",
    "5610": "Ġ2022-06-30:",
    "5611": "Ġ2022-07-01:",
    "5612": "Ġ2022-07-03:",
    "5613": "Ġ2022-07-04:",
    "5614": "Ġ2022-07-07:",
    "5615": "Ġ2022-07-08:",
    "5616": "Ġ2022-07-09:",
    "5617": "Ġ2022-07-11:",
    "5618": "Ġ2022-07-14:",
    "5619": "Ġ2022-07-15:",
    "5620": "Ġ19.65",
    "5621": "Ġ2022-07-16:",
    "5622": "Ġ2022-07-19:",
    "5623": "Ġ2022-07-21:",
    "5624": "Ġ2022-07-24:",
    "5625": "Ġ2022-07-25:",
    "5626": "Ġ14.89",
    "5627": "Ġ2022-07-27:",
    "5628": "Ġ2022-07-28:",
    "5629": "Ġ2022-07-30:",
    "5630": "Ġ2022-07-31:",
    "5631": "Ġ2022-08-02:",
    "5632": "Ġ2022-08-03:",
    "5633": "Ġ2022-08-05:",
    "5634": "Ġ2022-08-06:",
    "5635": "Ġ2022-08-09:",
    "5636": "Ġ2022-08-10:",
    "5637": "Ġ2022-08-12:",
    "5638": "Ġ2022-08-13:",
    "5639": "Ġ2022-08-15:",
    "5640": "Ġ2022-08-16:",
    "5641": "Ġ2022-08-18:",
    "5642": "Ġ2022-08-21:",
    "5643": "Ġ2022-08-24:",
    "5644": "Ġ2022-08-26:",
    "5645": "Ġ2022-08-28:",
    "5646": "Ġ2022-08-30:",
    "5647": "Ġ2022-09-01:",
    "5648": "Ġ2022-09-04:",
    "5649": "Ġ2022-09-05:",
    "5650": "Ġ13.58",
    "5651": "Ġ2022-09-06:",
    "5652": "Ġ2022-09-09:",
    "5653": "Ġ2022-09-11:",
    "5654": "Ġ2022-09-13:",
    "5655": "Ġ2022-09-16:",
    "5656": "Ġ20.56",
    "5657": "Ġ2022-09-17:",
    "5658": "Ġ2022-09-18:",
    "5659": "Ġ2022-09-19:",
    "5660": "Ġ2022-09-21:",
    "5661": "Ġ2022-09-23:",
    "5662": "Ġ2022-09-24:",
    "5663": "Ġ2022-09-25:",
    "5664": "Ġ2022-09-27:",
    "5665": "Ġ3.79",
    "5666": "Ġ2022-09-30:",
    "5667": "Ġ2022-10-01:",
    "5668": "Ġ2022-10-04:",
    "5669": "Ġ2022-10-05:",
    "5670": "Ġ2022-10-07:",
    "5671": "Ġ2022-10-08:",
    "5672": "Ġ2022-10-09:",
    "5673": "Ġ2022-10-10:",
    "5674": "Ġ2022-10-12:",
    "5675": "Ġ2022-10-13:",
    "5676": "Ġ2022-10-14:",
    "5677": "Ġ2022-10-16:",
    "5678": "Ġ2022-10-17:",
    "5679": "Ġ2022-10-18:",
    "5680": "Ġ2022-10-19:",
    "5681": "Ġ2022-10-20:",
    "5682": "Ġ2022-10-22:",
    "5683": "Ġ2022-10-23:",
    "5684": "Ġ2022-10-25:",
    "5685": "Ġ2022-10-26:",
    "5686": "Ġ2022-10-27:",
    "5687": "Ġ2022-10-28:",
    "5688": "Ġ2022-10-30:",
    "5689": "Ġ2022-11-01:",
    "5690": "Ġ2022-11-02:",
    "5691": "Ġ2022-11-03:",
    "5692": "Ġ2022-11-06:",
    "5693": "Ġ2022-11-08:",
    "5694": "Ġ2022-11-10:",
    "5695": "Ġ2022-11-12:",
    "5696": "Ġ2022-11-13:",
    "5697": "Ġ2022-11-14:",
    "5698": "Ġ2022-11-15:",
    "5699": "Ġ2022-11-18:",
    "5700": "Ġ2022-11-19:",
    "5701": "Ġ2022-11-20:",
    "5702": "Ġ2022-11-21:",
    "5703": "Ġ2022-11-22:",
    "5704": "Ġ2022-11-23:",
    "5705": "Ġ2022-11-25:",
    "5706": "Ġ2022-11-28:",
    "5707": "Ġ2022-12-01:",
    "5708": "Ġ2022-12-04:",
    "5709": "Ġ2022-12-06:",
    "5710": "Ġ2022-12-09:",
    "5711": "Ġ2022-12-10:",
    "5712": "Ġ2022-12-12:",
    "5713": "Ġ2022-12-14:",
    "5714": "Ġ2022-12-17:",
    "5715": "Ġ2022-12-18:",
    "5716": "Ġ2022-12-20:",
    "5717": "Ġ2022-12-23:",
    "5718": "Ġ2022-12-26:",
    "5719": "Ġ2022-12-29:",
    "5720": "Ġ2023-01-01:",
    "5721": "Ġ2023-01-04:",
    "5722": "Ġ2023-01-05:",
    "5723": "Ġ2023-01-08:",
    "5724": "Ġ2023-01-09:",
    "5725": "Ġ2023-01-10:",
    "5726": "Ġ2023-01-11:",
    "5727": "Ġ2023-01-13:",
    "5728": "Ġ2023-01-14:",
    "5729": "Ġ2023-01-16:",
    "5730": "Ġ2023-01-18:",
    "5731": "Ġ2023-01-19:",
    "5732": "Ġ2023-01-22:",
    "5733": "Ġ2023-01-23:",
    "5734": "Ġ2023-01-24:",
    "5735": "Ġ2023-01-25:",
    "5736": "Ġ2023-01-28:",
    "5737": "Ġ2023-01-30:",
    "5738": "Ġ2023-01-31:",
    "5739": "Ġ2023-02-02:",
    "5740": "Ġ2023-02-04:",
    "5741": "Ġ2023-02-05:",
    "5742": "Ġ2023-02-07:",
    "5743": "Ġ2023-02-08:",
    "5744": "Ġ2023-02-09:",
    "5745": "Ġ2023-02-10:",
    "5746": "Ġ2023-02-11:",
    "5747": "Ġ2023-02-12:",
    "5748": "Ġ17.19",
    "5749": "Ġ2023-02-14:",
    "5750": "Ġ2023-02-15:",
    "5751": "Ġ2023-02-16:",
    "5752": "Ġ2023-02-19:",
    "5753": "Ġ2023-02-22:",
    "5754": "Ġ2023-02-24:",
    "5755": "Ġ2023-02-27:",
    "5756": "Ġ2023-02-28:",
    "5757": "Ġ2023-03-01:",
    "5758": "Ġ2023-03-04:",
    "5759": "Ġ2023-03-05:",
    "5760": "Ġ2023-03-06:",
    "5761": "Ġ2023-03-07:",
    "5762": "Ġ2023-03-08:",
    "5763": "Ġ2023-03-09:",
    "5764": "Ġ21.42",
    "5765": "Ġ2023-03-11:",
    "5766": "Ġ2023-03-12:",
    "5767": "Ġ2023-03-13:",
    "5768": "Ġ2023-03-14:",
    "5769": "Ġ2023-03-15:",
    "5770": "Ġ2023-03-17:",
    "5771": "Ġ2023-03-18:",
    "5772": "Ġ2023-03-20:",
    "5773": "Ġ2023-03-21:",
    "5774": "Ġ2023-03-24:",
    "5775": "Ġ2023-03-26:",
    "5776": "Ġ2023-03-27:",
    "5777": "Ġ2023-03-30:",
    "5778": "Ġ2023-04-01:",
    "5779": "Ġ16.43",
    "5780": "Ġ2023-04-02:",
    "5781": "Ġ2023-04-03:",
    "5782": "Ġ2023-04-06:",
    "5783": "Ġ2023-04-07:",
    "5784": "Ġ2023-04-08:",
    "5785": "Ġ2023-04-10:",
    "5786": "Ġ2023-04-11:",
    "5787": "Ġ2023-04-12:",
    "5788": "Ġ16.18",
    "5789": "Ġ2023-04-15:",
    "5790": "Ġ2023-04-16:",
    "5791": "Ġ2023-04-17:",
    "5792": "Ġ2023-04-19:",
    "5793": "Ġ2023-04-20:",
    "5794": "Ġ18.36",
    "5795": "Ġ2023-04-21:",
    "5796": "Ġ2023-04-22:",
    "5797": "Ġ2023-04-24:",
    "5798": "Ġ2023-04-27:",
    "5799": "Ġ2023-04-28:",
    "5800": "Ġ2023-04-29:",
    "5801": "Ġ2023-05-01:",
    "5802": "Ġ2023-05-02:",
    "5803": "Ġ2023-05-03:",
    "5804": "Ġ2023-05-05:",
    "5805": "Ġ2023-05-07:",
    "5806": "Ġ2023-05-09:",
    "5807": "Ġ2023-05-10:",
    "5808": "Ġ2023-05-12:",
    "5809": "Ġ2023-05-13:",
    "5810": "Ġ2023-05-14:",
    "5811": "Ġ2023-05-16:",
    "5812": "Ġ2023-05-17:",
    "5813": "Ġ16.58",
    "5814": "Ġ2023-05-18:",
    "5815": "Ġ2023-05-20:",
    "5816": "Ġ2023-05-21:",
    "5817": "Ġ2023-05-23:",
    "5818": "Ġ2023-05-25:",
    "5819": "Ġ2023-05-27:",
    "5820": "Ġ2023-05-28:",
    "5821": "Ġ2023-05-30:",
    "5822": "Ġ2023-05-31:",
    "5823": "Ġ2023-06-01:",
    "5824": "Ġ2023-06-04:",
    "5825": "Ġ2023-06-05:",
    "5826": "Ġ2023-06-07:",
    "5827": "Ġ2023-06-08:",
    "5828": "Ġ2023-06-11:",
    "5829": "Ġ2023-06-14:",
    "5830": "Ġ2023-06-15:",
    "5831": "Ġ2023-06-16:",
    "5832": "Ġ2023-06-18:",
    "5833": "Ġ2023-06-20:",
    "5834": "Ġ2023-06-22:",
    "5835": "Ġ2023-06-23:",
    "5836": "Ġ2023-06-26:",
    "5837": "Ġ2023-06-27:",
    "5838": "Ġ2023-06-28:",
    "5839": "Ġ2023-06-30:",
    "5840": "Ġ2023-07-02:",
    "5841": "Ġ2023-07-04:",
    "5842": "Ġ2023-07-07:",
    "5843": "Ġ2023-07-08:",
    "5844": "Ġ2023-07-09:",
    "5845": "Ġ2023-07-12:",
    "5846": "Ġ2023-07-14:",
    "5847": "Ġ2023-07-17:",
    "5848": "Ġ2023-07-18:",
    "5849": "Ġ2023-07-20:",
    "5850": "Ġ2023-07-21:",
    "5851": "Ġ2023-07-22:",
    "5852": "Ġ2023-07-23:",
    "5853": "Ġ2023-07-24:",
    "5854": "Ġ2023-07-26:",
    "5855": "Ġ2023-07-28:",
    "5856": "Ġ2023-07-29:",
    "5857": "Ġ2023-07-31:",
    "5858": "Ġ2023-08-01:",
    "5859": "Ġ2023-08-02:",
    "5860": "Ġ2023-08-03:",
    "5861": "Ġ2023-08-05:",
    "5862": "Ġ2023-08-07:",
    "5863": "Ġ2023-08-09:",
    "5864": "Ġ2023-08-11:",
    "5865": "Ġ2023-08-13:",
    "5866": "Ġ2023-08-14:",
    "5867": "Ġ2023-08-15:",
    "5868": "Ġ2023-08-16:",
    "5869": "Ġ2023-08-17:",
    "5870": "Ġ2023-08-19:",
    "5871": "Ġ2023-08-21:",
    "5872": "Ġ2023-08-23:",
    "5873": "Ġ2023-08-24:",
    "5874": "Ġ15.87",
    "5875": "Ġ2023-08-25:",
    "5876": "Ġ2023-08-28:",
    "5877": "Ġ2023-08-29:",
    "5878": "Ġ2023-08-31:",
    "5879": "Ġ2023-09-03:",
    "5880": "Ġ2023-09-04:",
    "5881": "Ġ2023-09-05:",
    "5882": "Ġ2023-09-06:",
    "5883": "Ġ2023-09-07:",
    "5884": "Ġ2023-09-08:",
    "5885": "Ġ2023-09-10:",
    "5886": "Ġ2023-09-11:",
    "5887": "Ġ2023-09-13:",
    "5888": "Ġ2023-09-14:",
    "5889": "Ġ2023-09-15:",
    "5890": "Ġ2023-09-18:",
    "5891": "Ġ2023-09-20:",
    "5892": "Ġ2023-09-21:",
    "5893": "Ġ2023-09-22:",
    "5894": "Ġ2023-09-23:",
    "5895": "Ġ2023-09-24:",
    "5896": "Ġ2023-09-26:",
    "5897": "Ġ2023-09-29:",
    "5898": "Ġ2023-10-01:",
    "5899": "Ġ2023-10-03:",
    "5900": "Ġ2023-10-04:",
    "5901": "Ġ2023-10-07:",
    "5902": "Ġ2023-10-08:",
    "5903": "Ġ2023-10-10:",
    "5904": "Ġ2023-10-12:",
    "5905": "Ġ2023-10-14:",
    "5906": "Ġ2023-10-15:",
    "5907": "Ġ2023-10-16:",
    "5908": "Ġ2023-10-17:",
    "5909": "Ġ2023-10-20:",
    "5910": "Ġ2023-10-23:",
    "5911": "Ġ2023-10-25:",
    "5912": "Ġ2023-10-28:",
    "5913": "Ġ2023-10-31:",
    "5914": "Ġ2023-11-01:",
    "5915": "Ġ2023-11-02:",
    "5916": "Ġ2023-11-05:",
    "5917": "Ġ2023-11-06:",
    "5918": "Ġ2023-11-08:",
    "5919": "Ġ2023-11-09:",
    "5920": "Ġ2023-11-10:",
    "5921": "Ġ21.18",
    "5922": "Ġ2023-11-11:",
    "5923": "Ġ2023-11-12:",
    "5924": "Ġ2023-11-14:",
    "5925": "Ġ2023-11-15:",
    "5926": "Ġ2023-11-16:",
    "5927": "Ġ2023-11-17:",
    "5928": "Ġ2023-11-18:",
    "5929": "Ġ2023-11-20:",
    "5930": "Ġ2023-11-21:",
    "5931": "Ġ2023-11-22:",
    "5932": "Ġ2023-11-25:",
    "5933": "Ġ2023-11-26:",
    "5934": "Ġ2023-11-28:",
    "5935": "Ġ2023-11-29:",
    "5936": "Ġ2023-12-01:",
    "5937": "Ġ3.59",
    "5938": "Ġ2023-12-02:",
    "5939": "Ġ2023-12-04:",
    "5940": "Ġ2023-12-05:",
    "5941": "Ġ2023-12-06:",
    "5942": "Ġ2023-12-08:",
    "5943": "Ġ2023-12-11:",
    "5944": "Ġ2023-12-13:",
    "5945": "Ġ2023-12-14:",
    "5946": "Ġ2023-12-17:",
    "5947": "Ġ2023-12-20:",
    "5948": "Ġ2023-12-23:",
    "5949": "Ġ2023-12-25:",
    "5950": "Ġ2023-12-27:",
    "5951": "Ġ2023-12-28:",
    "5952": "Ġ2023-12-29:",
    "5953": "Ġ2023-12-30:",
    "5954": "Ġ2023-12-31:",
    "5955": "Ġ2024-01-03:",
    "5956": "Ġ21.36",
    "5957": "Ġ2024-01-05:",
    "5958": "Ġ2024-01-06:",
    "5959": "Ġ2024-01-09:",
    "5960": "Ġ2024-01-10:",
    "5961": "Ġ2024-01-11:",
    "5962": "Ġ2024-01-14:",
    "5963": "Ġ2024-01-15:",
    "5964": "Ġ2024-01-17:",
    "5965": "Ġ2024-01-18:",
    "5966": "Ġ2024-01-19:",
    "5967": "Ġ2024-01-21:",
    "5968": "Ġ2024-01-22:",
    "5969": "Ġ2024-01-24:",
    "5970": "Ġ2024-01-25:",
    "5971": "Ġ15.11",
    "5972": "Ġ2024-01-26:",
    "5973": "Ġ2024-01-28:",
    "5974": "Ġ2024-01-30:",
    "5975": "Ġ2024-01-31:",
    "5976": "Ġ2024-02-02:",
    "5977": "Ġ2024-02-03:",
    "5978": "Ġ2024-02-04:",
    "5979": "Ġ2024-02-07:",
    "5980": "Ġ2024-02-09:",
    "5981": "Ġ2024-02-10:",
    "5982": "Ġ2024-02-12:",
    "5983": "Ġ2024-02-13:",
    "5984": "Ġ2024-02-15:",
    "5985": "Ġ2024-02-16:",
    "5986": "Ġ2024-02-18:",
    "5987": "Ġ2024-02-20:",
    "5988": "Ġ2024-02-21:",
    "5989": "Ġ2024-02-24:",
    "5990": "Ġ2024-02-25:",
    "5991": "Ġ2024-02-26:",
    "5992": "Ġ2024-02-27:",
    "5993": "Ġ2024-02-28:",
    "5994": "Ġ2024-02-29:",
    "5995": "Ġ2024-03-02:",
    "5996": "Ġ2024-03-05:",
    "5997": "Ġ2024-03-07:",
    "5998": "Ġ2024-03-10:",
    "5999": "Ġ2024-03-12:",
    "6000": "Ġ2024-03-14:",
    "6001": "Ġ2024-03-15:",
    "6002": "Ġ2024-03-17:",
    "6003": "Ġ2024-03-20:",
    "6004": "Ġ2024-03-23:",
    "6005": "Ġ2024-03-25:",
    "6006": "Ġ2024-03-27:",
    "6007": "Ġ2024-03-30:",
    "6008": "Ġ2024-03-31:",
    "6009": "Ġ2024-04-03:",
    "6010": "Ġ2024-04-04:",
    "6011": "Ġ2024-04-05:",
    "6012": "Ġ2024-04-07:",
    "6013": "Ġ2024-04-09:",
    "6014": "Ġ2024-04-12:",
    "6015": "Ġ2024-04-15:",
    "6016": "Ġ2024-04-18:",
    "6017": "Ġ2024-04-21:",
    "6018": "Ġ2024-04-24:",
    "6019": "Ġ2024-04-25:",
    "6020": "Ġ2024-04-26:",
    "6021": "Ġ2024-04-28:",
    "6022": "Ġ2024-04-29:",
    "6023": "Ġ2024-04-30:",
    "6024": "Ġ2024-05-01:",
    "6025": "Ġ2024-05-04:",
    "6026": "Ġ2024-05-05:",
    "6027": "Ġ2024-05-07:",
    "6028": "Ġ2024-05-09:",
    "6029": "Ġ2024-05-11:",
    "6030": "Ġ2024-05-14:",
    "6031": "Ġ2024-05-15:",
    "6032": "Ġ2024-05-16:",
    "6033": "Ġ2024-05-18:",
    "6034": "Ġ2024-05-20:",
    "6035": "Ġ2024-05-23:",
    "6036": "Ġ2024-05-25:",
    "6037": "Ġ2024-05-28:",
    "6038": "Ġ2024-05-29:",
    "6039": "Ġ2024-05-30:",
    "6040": "Ġ16.98",
    "6041": "Ġ2024-06-02:",
    "6042": "Ġ2024-06-04:",
    "6043": "Ġ2024-06-05:",
    "6044": "Ġ2024-06-06:",
    "6045": "Ġ2024-06-08:",
    "6046": "Ġ2024-06-10:",
    "6047": "Ġ2024-06-12:",
    "6048": "Ġ2024-06-14:",
    "6049": "Ġ2024-06-15:",
    "6050": "Ġ2024-06-17:",
    "6051": "Ġ2024-06-19:",
    "6052": "Ġ2024-06-21:",
    "6053": "Ġ2024-06-22:",
    "6054": "Ġ2024-06-23:",
    "6055": "Ġ2024-06-24:",
    "6056": "Ġ2024-06-26:",
    "6057": "Ġ2024-06-27:",
    "6058": "Ġ2024-06-28:",
    "6059": "Ġ2024-06-29:",
    "6060": "Ġ2024-06-30:",
    "6061": "Ġ2024-07-01:",
    "6062": "Ġ2024-07-02:",
    "6063": "Ġ2024-07-05:",
    "6064": "Ġ2024-07-08:",
    "6065": "Ġ2024-07-09:",
    "6066": "Ġ2024-07-10:",
    "6067": "Ġ2024-07-11:",
    "6068": "Ġ2024-07-12:",
    "6069": "Ġ2024-07-13:",
    "6070": "Ġ2024-07-15:",
    "6071": "Ġ2024-07-17:",
    "6072": "Ġ2024-07-18:",
    "6073": "Ġ2024-07-21:",
    "6074": "Ġ2024-07-23:",
    "6075": "Ġ2024-07-25:",
    "6076": "Ġ2024-07-27:",
    "6077": "Ġ2024-07-29:",
    "6078": "Ġ2024-07-30:",
    "6079": "Ġ2024-08-01:",
    "6080": "Ġ2024-08-03:",
    "6081": "Ġ2024-08-05:",
    "6082": "Ġ2024-08-08:",
    "6083": "Ġ2024-08-09:",
    "6084": "Ġ2024-08-10:",
    "6085": "Ġ2024-08-12:",
    "6086": "Ġ2024-08-13:",
    "6087": "Ġ2024-08-16:",
    "6088": "Ġ2024-08-17:",
    "6089": "Ġ2024-08-19:",
    "6090": "Ġ2024-08-20:",
    "6091": "Ġ2024-08-22:",
    "6092": "Ġ2024-08-23:",
    "6093": "Ġ2024-08-24:",
    "6094": "Ġ2024-08-26:",
    "6095": "Ġ2024-08-27:",
    "6096": "Ġ2024-08-29:",
    "6097": "Ġ2024-08-30:",
    "6098": "Ġ2024-09-01:",
    "6099": "Ġ2024-09-02:",
    "6100": "Ġ2024-09-03:",
    "6101": "Ġ2024-09-06:",
    "6102": "Ġ2024-09-08:",
    "6103": "Ġ2024-09-10:",
    "6104": "Ġ2024-09-12:",
    "6105": "Ġ2024-09-14:",
    "6106": "Ġ2024-09-15:",
    "6107": "Ġ2024-09-17:",
    "6108": "Ġ2024-09-18:",
    "6109": "Ġ2024-09-19:",
    "6110": "Ġ2024-09-21:",
    "6111": "Ġ2024-09-23:",
    "6112": "Ġ2024-09-25:",
    "6113": "Ġ2024-09-26:",
    "6114": "Ġ2024-09-28:",
    "6115": "Ġ2024-09-30:",
    "6116": "Ġ2024-10-03:",
    "6117": "Ġ2024-10-05:",
    "6118": "Ġ2024-10-08:",
    "6119": "Ġ2024-10-09:",
    "6120": "Ġ2024-10-10:",
    "6121": "Ġ2024-10-11:",
    "6122": "Ġ2024-10-13:",
    "6123": "Ġ2024-10-15:",
    "6124": "Ġ2024-10-16:",
    "6125": "Ġ2024-10-19:",
    "6126": "Ġ2024-10-20:",
    "6127": "Ġ2024-10-22:",
    "6128": "Ġ2024-10-23:",
    "6129": "Ġ2024-10-24:",
    "6130": "Ġ2024-10-25:",
    "6131": "Ġ2024-10-27:",
    "6132": "Ġ2024-10-29:",
    "6133": "Ġ2024-10-30:",
    "6134": "Ġ2024-11-01:",
    "6135": "Ġ2024-11-02:",
    "6136": "Ġ2024-11-03:",
    "6137": "Ġ2024-11-05:",
    "6138": "Ġ2024-11-06:",
    "6139": "Ġ2024-11-08:",
    "6140": "Ġ436",
    "6141": "Ġ2024-11-09:",
    "6142": "Ġ2024-11-11:",
    "6143": "Ġ2024-11-12:",
    "6144": "Ġ2024-11-14:",
    "6145": "Ġ2024-11-16:",
    "6146": "Ġ2024-11-17:",
    "6147": "Ġ2024-11-20:",
    "6148": "Ġ2024-11-21:",
    "6149": "Ġ2024-11-22:",
    "6150": "Ġ2024-11-23:",
    "6151": "Ġ2024-11-24:",
    "6152": "Ġ2024-11-26:",
    "6153": "Ġ2024-11-27:",
    "6154": "Ġ2024-11-29:",
    "6155": "Ġ2024-11-30:",
    "6156": "Ġ2024-12-01:",
    "6157": "Ġ2024-12-03:",
    "6158": "Ġ2024-12-05:",
    "6159": "Ġ2024-12-06:",
    "6160": "Ġ2024-12-08:",
    "6161": "Ġ2024-12-10:",
    "6162": "Ġ2024-12-11:",
    "6163": "Ġ2024-12-13:",
    "6164": "Ġ2024-12-14:",
    "6165": "Ġ2024-12-15:",
    "6166": "Ġ2024-12-16:",
    "6167": "Ġ2024-12-19:",
    "6168": "Ġ2024-12-21:",
    "6169": "Ġ2024-12-24:",
    "6170": "Ġ2024-12-25:",
    "6171": "Ġ2024-12-26:",
    "6172": "Ġ2024-12-28:",
    "6173": "Ġ2024-12-30:",
    "6174": "Ġ2024-12-31:",
    "6175": "Ġ2025-01-01:",
    "6176": "Ġ2025-01-04:",
    "6177": "Ġ2025-01-05:",
    "6178": "Ġ2025-01-06:",
    "6179": "Ġ2025-01-07:",
    "6180": "Ġ2025-01-08:",
    "6181": "Ġ2025-01-10:",
    "6182": "Ġ2025-01-11:",
    "6183": "Ġ2025-01-14:",
    "6184": "Ġ2025-01-16:",
    "6185": "Ġ2025-01-17:",
    "6186": "Ġ2025-01-20:",
    "6187": "Ġ2025-01-21:",
    "6188": "Ġ2025-01-23:",
    "6189": "Ġ2025-01-24:",
    "6190": "Ġ2025-01-27:",
    "6191": "Ġ14.36",
    "6192": "Ġ2025-01-28:",
    "6193": "Ġ2025-01-29:",
    "6194": "Ġ2025-01-30:",
    "6195": "Ġ18.99",
    "6196": "Ġ2025-01-31:",
    "6197": "Ġ2025-02-03:",
    "6198": "Ġ2025-02-05:",
    "6199": "Ġ2025-02-06:",
    "6200": "Ġ2025-02-08:",
    "6201": "Ġ2025-02-09:",
    "6202": "Ġ2025-02-11:",
    "6203": "Ġ2025-02-12:",
    "6204": "Ġ2025-02-13:",
    "6205": "Ġ2025-02-15:",
    "6206": "Ġ2025-02-17:",
    "6207": "Ġ2025-02-18:",
    "6208": "Ġ2025-02-20:",
    "6209": "Ġ2025-02-21:",
    "6210": "Ġ2025-02-23:",
    "6211": "Ġ2025-02-25:",
    "6212": "Ġ2025-02-28:",
    "6213": "Ġ2025-03-01:",
    "6214": "Ġ2025-03-02:",
    "6215": "Ġ2025-03-04:",
    "6216": "Ġ2025-03-05:",
    "6217": "Ġ2025-03-06:",
    "6218": "Ġ2025-03-09:",
    "6219": "Ġ2025-03-10:",
    "6220": "Ġ2025-03-11:",
    "6221": "Ġ2025-03-12:",
    "6222": "Ġ2025-03-13:",
    "6223": "Ġ2025-03-14:",
    "6224": "Ġ2025-03-15:",
    "6225": "Ġ2025-03-17:",
    "6226": "Ġ2025-03-18:",
    "6227": "Ġ2025-03-21:",
    "6228": "Ġ2025-03-22:",
    "6229": "Ġ2025-03-25:",
    "6230": "Ġ13.15",
    "6231": "Ġ2025-03-26:",
    "6232": "Ġ2025-03-27:",
    "6233": "Ġ2025-03-28:",
    "6234": "Ġ2025-03-29:",
    "6235": "Ġ2025-03-30:",
    "6236": "Ġ2025-03-31:",
    "6237": "Ġ2025-04-01:",
    "6238": "Ġ2025-04-02:",
    "6239": "Ġ2025-04-03:",
    "6240": "Ġ2025-04-05:",
    "6241": "Ġ2025-04-06:",
    "6242": "Ġ2025-04-07:",
    "6243": "Ġ2025-04-09:",
    "6244": "Ġ2025-04-11:",
    "6245": "Ġ2025-04-12:",
    "6246": "Ġ2025-04-14:",
    "6247": "Ġ2025-04-15:",
    "6248": "Ġ2025-04-17:",
    "6249": "Ġ2025-04-18:",
    "6250": "Ġ2025-04-19:",
    "6251": "Ġ2025-04-21:",
    "6252": "Ġ2025-04-22:",
    "6253": "Ġ2025-04-23:",
    "6254": "Ġ2025-04-24:",
    "6255": "Ġ2025-04-26:",
    "6256": "Ġ2025-04-28:",
    "6257": "Ġ2025-05-01:",
    "6258": "Ġ2025-05-02:",
    "6259": "Ġ2025-05-03:",
    "6260": "Ġ2025-05-05:",
    "6261": "Ġ2025-05-06:",
    "6262": "Ġ2025-05-09:",
    "6263": "Ġ2025-05-10:",
    "6264": "Ġ2025-05-12:",
    "6265": "Ġ2025-05-13:",
    "6266": "Ġ2025-05-14:",
    "6267": "Ġ2025-05-16:",
    "6268": "Ġ2025-05-18:",
    "6269": "Ġ2025-05-19:",
    "6270": "Ġ2025-05-22:",
    "6271": "Ġ2025-05-24:",
    "6272": "Ġ2025-05-25:",
    "6273": "Ġ2025-05-28:",
    "6274": "Ġ2025-05-30:",
    "6275": "Ġ2025-05-31:",
    "6276": "Ġ2025-06-03:",
    "6277": "Ġ2025-06-04:",
    "6278": "Ġ2025-06-06:",
    "6279": "Ġ2025-06-07:",
    "6280": "Ġ2025-06-10:",
    "6281": "Ġ2025-06-12:",
    "6282": "Ġ21.54",
    "6283": "Ġ2025-06-13:",
    "6284": "Ġ2025-06-14:",
    "6285": "Ġ2025-06-17:",
    "6286": "Ġ2025-06-18:",
    "6287": "Ġ2025-06-19:",
    "6288": "Ġ2025-06-20:",
    "6289": "Ġ2025-06-22:",
    "6290": "Ġ2025-06-24:",
    "6291": "Ġ2025-06-26:",
    "6292": "Ġ2025-06-27:",
    "6293": "Ġ2025-06-28:",
    "6294": "Ġ2025-06-30:",
    "6295": "Ġ2025-07-01:",
    "6296": "Ġ2025-07-02:",
    "6297": "Ġ2025-07-04:",
    "6298": "Ġ2025-07-05:",
    "6299": "Ġ2025-07-06:",
    "6300": "Ġ2025-07-07:",
    "6301": "Ġ2025-07-08:",
    "6302": "Ġ14.73",
    "6303": "Ġ2025-07-09:",
    "6304": "Ġ2025-07-10:",
    "6305": "Ġ2025-07-11:",
    "6306": "Ġ2025-07-12:",
    "6307": "Ġ2025-07-14:",
    "6308": "Ġ2025-07-17:",
    "6309": "Ġ2025-07-18:",
    "6310": "Ġ2025-07-21:",
    "6311": "Ġ2025-07-22:",
    "6312": "Ġ2025-07-23:",
    "6313": "Ġ2025-07-24:",
    "6314": "Ġ2025-07-25:",
    "6315": "Ġ2025-07-26:",
    "6316": "Ġ2025-07-28:",
    "6317": "Ġ2025-07-29:",
    "6318": "Ġ2025-07-30:",
    "6319": "Ġ2025-08-02:",
    "6320": "Ġ2025-08-05:",
    "6321": "Ġ2025-08-06:",
    "6322": "Ġ2025-08-09:",
    "6323": "Ġ2025-08-11:",
    "6324": "Ġ2025-08-12:",
    "6325": "Ġ2025-08-14:",
    "6326": "Ġ2025-08-16:",
    "6327": "Ġ2025-08-19:",
    "6328": "Ġ2025-08-20:",
    "6329": "Ġ2025-08-23:",
    "6330": "Ġ2025-08-26:",
    "6331": "Ġ2025-08-28:",
    "6332": "Ġ2025-08-29:",
    "6333": "Ġ2025-08-30:",
    "6334": "Ġ2025-09-02:",
    "6335": "Ġ2025-09-03:",
    "6336": "Ġ2025-09-04:",
    "6337": "Ġ2025-09-05:",
    "6338": "Ġ2025-09-06:",
    "6339": "Ġ2025-09-07:",
    "6340": "Ġ2025-09-09:",
    "6341": "Ġ2025-09-11:",
    "6342": "Ġ2025-09-14:",
    "6343": "Ġ2025-09-16:",
    "6344": "Ġ2025-09-18:",
    "6345": "Ġ2025-09-20:",
    "6346": "Ġ2025-09-23:",
    "6347": "Ġ2025-09-25:",
    "6348": "Ġ2025-09-26:",
    "6349": "Ġ2025-09-28:",
    "6350": "Ġ2025-09-29:",
    "6351": "Ġ2025-09-30:",
    "6352": "Ġ2025-10-01:",
    "6353": "Ġ2025-10-03:",
    "6354": "Ġ2025-10-06:",
    "6355": "Ġ2025-10-09:",
    "6356": "Ġ2025-10-12:",
    "6357": "Ġ2025-10-13:",
    "6358": "Ġ2025-10-14:",
    "6359": "Ġ2025-10-16:",
    "6360": "Ġ2025-10-19:",
    "6361": "Ġ2025-10-20:",
    "6362": "Ġ2025-10-22:",
    "6363": "Ġ2025-10-23:",
    "6364": "Ġ2025-10-24:",
    "6365": "Ġ2025-10-26:",
    "6366": "Ġ2025-10-27:",
    "6367": "Ġ2025-10-30:",
    "6368": "Ġ2025-11-01:",
    "6369": "Ġ2025-11-03:",
    "6370": "Ġ2025-11-04:",
    "6371": "Ġ2025-11-05:",
    "6372": "Ġ2025-11-07:",
    "6373": "Ġ13.03",
    "6374": "Ġ2025-11-08:",
    "6375": "Ġ2025-11-09:",
    "6376": "Ġ2025-11-11:",
    "6377": "Ġ2025-11-14:",
    "6378": "Ġ2025-11-16:",
    "6379": "Ġ2025-11-18:",
    "6380": "Ġ2025-11-19:",
    "6381": "Ġ2025-11-21:",
    "6382": "Ġ17.54",
    "6383": "Ġ2025-11-23:",
    "6384": "Ġ2025-11-25:",
    "6385": "Ġ2025-11-28:",
    "6386": "Ġ2025-11-29:",
    "6387": "Ġ2025-12-02:",
    "6388": "Ġ2025-12-04:",
    "6389": "Ġ2025-12-05:",
    "6390": "Ġ2025-12-06:",
    "6391": "Ġ2025-12-08:",
    "6392": "Ġ2025-12-10:",
    "6393": "Ġ2025-12-11:",
    "6394": "Ġ2025-12-12:",
    "6395": "Ġ2025-12-13:",
    "6396": "Ġ2025-12-14:",
    "6397": "Ġ2025-12-16:",
    "6398": "Ġ2025-12-18:",
    "6399": "Ġ2025-12-19:",
    "6400": "Ġ2025-12-20:",
    "6401": "Ġ2025-12-22:",
    "6402": "Ġ2025-12-25:",
    "6403": "Ġ2025-12-28:",
    "6404": "Ġ2025-12-30:",
    "6405": "Ġ2025-12-31:",
    "6406": "Ġ2026-01-01:",
    "6407": "Ġ2026-01-04:",
    "6408": "Ġ2026-01-05:",
    "6409": "Ġ2026-01-07:",
    "6410": "Ġ2026-01-08:",
    "6411": "Ġ2026-01-09:",
    "6412": "Ġ2026-01-11:",
    "6413": "Ġ2026-01-13:",
    "6414": "Ġ2026-01-15:",
    "6415": "Ġ2026-01-16:",
    "6416": "Ġ2026-01-17:",
    "6417": "Ġ2026-01-19:",
    "6418": "Ġ2026-01-22:",
    "6419": "Ġ2026-01-23:",
    "6420": "Ġ2026-01-24:",
    "6421": "Ġ2026-01-27:",
    "6422": "Ġ2026-01-30:",
    "6423": "Ġ2026-01-31:",
    "6424": "Ġ2026-02-01:",
    "6425": "Ġ2026-02-03:",
    "6426": "Ġ2026-02-04:",
    "6427": "Ġ2026-02-06:",
    "6428": "Ġ2026-02-07:",
    "6429": "Ġ2026-02-09:",
    "6430": "Ġ2026-02-11:",
    "6431": "Ġ2026-02-13:",
    "6432": "Ġ2026-02-15:",
    "6433": "Ġ2026-02-18:",
    "6434": "Ġ2026-02-21:",
    "6435": "Ġ2026-02-23:",
    "6436": "Ġ2026-02-24:",
    "6437": "Ġ2026-02-27:",
    "6438": "Ġ2026-02-28:",
    "6439": "Ġ2026-03-03:",
    "6440": "Ġ2026-03-05:",
    "6441": "Ġ2026-03-06:",
    "6442": "Ġ2026-03-08:",
    "6443": "Ġ2026-03-10:",
    "6444": "Ġ2026-03-11:",
    "6445": "Ġ2026-03-12:",
    "6446": "Ġ2026-03-13:",
    "6447": "Ġ2026-03-16:",
    "6448": "Ġ2026-03-18:",
    "6449": "Ġ2026-03-20:",
    "6450": "Ġ2026-03-21:",
    "6451": "Ġ2026-03-22:",
    "6452": "Ġ2026-03-23:",
    "6453": "Ġ2026-03-24:",
    "6454": "Ġ2026-03-27:",
    "6455": "Ġ2026-03-29:",
    "6456": "Ġ2026-03-30:",
    "6457": "Ġ2026-03-31:",
    "6458": "Ġ2026-04-03:",
    "6459": "Ġ2026-04-04:",
    "6460": "Ġ2026-04-05:",
    "6461": "Ġ2026-04-08:",
    "6462": "Ġ2026-04-10:",
    "6463": "Ġ2026-04-13:",
    "6464": "Ġ2026-04-15:",
    "6465": "Ġ2026-04-18:",
    "6466": "Ġ2026-04-19:",
    "6467": "Ġ2026-04-22:",
    "6468": "Ġ2026-04-24:",
    "6469": "Ġ2026-04-27:",
    "6470": "Ġ2026-04-28:",
    "6471": "Ġ2026-04-29:",
    "6472": "Ġ2026-05-02:",
    "6473": "Ġ2026-05-05:",
    "6474": "Ġ2026-05-06:",
    "6475": "Ġ2026-05-07:",
    "6476": "Ġ2026-05-08:",
    "6477": "Ġ2026-05-09:",
    "6478": "Ġ2026-05-10:",
    "6479": "Ġ2026-05-11:",
    "6480": "Ġ2026-05-13:",
    "6481": "Ġ2026-05-15:",
    "6482": "Ġ2026-05-17:",
    "6483": "Ġ344",
    "6484": "Ġ2026-05-19:",
    "6485": "Ġ2026-05-20:",
    "6486": "Ġ2026-05-23:",
    "6487": "Ġ2026-05-24:",
    "6488": "Ġ2026-05-27:",
    "6489": "Ġ2026-05-28:",
    "6490": "Ġ2026-05-29:",
    "6491": "Ġ2026-06-01:",
    "6492": "Ġ2026-06-02:",
    "6493": "Ġ2026-06-03:",
    "6494": "Ġ2026-06-05:",
    "6495": "Ġ2026-06-07:",
    "6496": "Ġ2026-06-08:",
    "6497": "Ġ2026-06-09:",
    "6498": "Ġ2026-06-10:",
    "6499": "Ġ2026-06-11:",
    "6500": "Ġ2026-06-12:",
    "6501": "Ġ2026-06-13:",
    "6502": "Ġ2026-06-14:",
    "6503": "Ġ2026-06-15:",
    "6504": "Ġ2026-06-17:",
    "6505": "Ġ2026-06-18:",
    "6506": "Ġ2026-06-21:",
    "6507": "Ġ2026-06-24:",
    "6508": "Ġ2026-06-25:",
    "6509": "Ġ2026-06-27:",
    "6510": "Ġ2026-06-29:",
    "6511": "Ġ2026-07-01:",
    "6512": "Ġ2026-07-02:",
    "6513": "Ġ3.17",
    "6514": "Ġ2026-07-04:",
    "6515": "Ġ2026-07-05:",
    "6516": "Ġ2026-07-08:",
    "6517": "Ġ2026-07-10:",
    "6518": "Ġ2026-07-11:",
    "6519": "Ġ2026-07-14:",
    "6520": "Ġ2026-07-15:",
    "6521": "Ġ2026-07-17:",
    "6522": "Ġ2026-07-18:",
    "6523": "Ġ2026-07-20:",
    "6524": "Ġ12.92",
    "6525": "Ġ2026-07-22:",
    "6526": "Ġ2026-07-23:",
    "6527": "Ġ2026-07-26:",
    "6528": "Ġ2026-07-27:",
    "6529": "Ġ2026-07-28:",
    "6530": "Ġ2026-07-30:",
    "6531": "Ġ2026-08-01:",
    "6532": "Ġ2026-08-02:",
    "6533": "Ġ12:38/mi,",
    "6534": "Ġ2026-08-04:",
    "6535": "Ġ2026-08-06:",
    "6536": "Ġ2026-08-07:",
    "6537": "Ġ2026-08-10:",
    "6538": "Ġ2026-08-11:",
    "6539": "Ġ2026-08-13:",
    "6540": "Ġ2026-08-14:",
    "6541": "Ġ2026-08-15:",
    "6542": "Ġ2026-08-16:",
    "6543": "Ġ2026-08-18:",
    "6544": "Ġ2026-08-21:",
    "6545": "Ġ2026-08-23:",
    "6546": "Ġ2026-08-25:",
    "6547": "Ġ2026-08-26:",
    "6548": "Ġ18.66",
    "6549": "Ġ2026-08-28:",
    "6550": "Ġ2026-08-29:",
    "6551": "Ġ2026-09-01:",
    "6552": "Ġ2026-09-04:",
    "6553": "Ġ2026-09-05:",
    "6554": "Ġ2026-09-07:",
    "6555": "Ġ2026-09-09:",
    "6556": "Ġ2026-09-11:",
    "6557": "Ġ2026-09-13:",
    "6558": "Ġ2026-09-14:",
    "6559": "Ġ16.21",
    "6560": "Ġ2026-09-15:",
    "6561": "Ġ2026-09-16:",
    "6562": "Ġ2026-09-17:",
    "6563": "Ġ2026-09-19:",
    "6564": "Ġ2026-09-21:",
    "6565": "Ġ2026-09-22:",
    "6566": "Ġ2026-09-23:",
    "6567": "Ġ2026-09-25:",
    "6568": "Ġ2026-09-26:",
    "6569": "Ġ2026-09-27:",
    "6570": "Ġ2026-09-29:",
    "6571": "Ġ2026-09-30:",
    "6572": "Ġ2026-10-01:",
    "6573": "Ġ2026-10-03:",
    "6574": "Ġ2026-10-04:",
    "6575": "Ġ2026-10-05:",
    "6576": "Ġ12:46/mi,",
    "6577": "Ġ2026-10-08:",
    "6578": "Ġ2026-10-09:",
    "6579": "Ġ2026-10-10:",
    "6580": "Ġ2026-10-13:",
    "6581": "Ġ2026-10-14:",
    "6582": "Ġ2026-10-15:",
    "6583": "Ġ2026-10-16:",
    "6584": "Ġ2026-10-19:",
    "6585": "Ġ13.62",
    "6586": "Ġ2026-10-21:",
    "6587": "Ġ2026-10-24:",
    "6588": "Ġ2026-10-26:",
    "6589": "Ġ2026-10-29:",
    "6590": "Ġ2026-10-30:",
    "6591": "Ġ2026-10-31:",
    "6592": "Ġ2026-11-02:",
    "6593": "Ġ2026-11-04:",
    "6594": "Ġ2026-11-07:",
    "6595": "Ġ2026-11-08:",
    "6596": "Ġ2026-11-09:",
    "6597": "Ġ2026-11-11:",
    "6598": "Ġ2026-11-13:",
    "6599": "Ġ2026-11-14:",
    "6600": "Ġ2026-11-15:",
    "6601": "Ġ2026-11-16:",
    "6602": "Ġ2026-11-18:",
    "6603": "Ġ2026-11-19:",
    "6604": "Ġ2026-11-22:",
    "6605": "Ġ2026-11-23:",
    "6606": "Ġ2026-11-25:",
    "6607": "Ġ2026-11-27:",
    "6608": "Ġ2026-11-28:",
    "6609": "Ġ2026-11-30:",
    "6610": "Ġ2026-12-01:",
    "6611": "Ġ2026-12-04:",
    "6612": "Ġ2026-12-05:",
    "6613": "Ġ5:53/mi,",
    "6614": "Ġ2026-12-07:",
    "6615": "Ġ2026-12-08:",
    "6616": "Ġ2026-12-11:",
    "6617": "Ġ2026-12-13:",
    "6618": "Ġ2026-12-14:",
    "6619": "Ġ2026-12-15:",
    "6620": "Ġ2026-12-17:",
    "6621": "Ġ2026-12-19:",
    "6622": "Ġ2026-12-20:",
    "6623": "Ġ2026-12-21:",
    "6624": "Ġ20.34",
    "6625": "Ġ2026-12-23:",
    "6626": "Ġ2026-12-24:",
    "6627": "Ġ2026-12-26:",
    "6628": "Ġ2026-12-27:",
    "6629": "Ġ2026-12-29:",
    "6630": "Ġ2026-12-31:",
    "6631": "Ġ2027-01-01:",
    "6632": "Ġ2027-01-02:",
    "6633": "Ġ2027-01-04:",
    "6634": "Ġ2027-01-07:",
    "6635": "Ġ2027-01-08:",
    "6636": "Ġ2027-01-10:",
    "6637": "Ġ2027-01-12:",
    "6638": "Ġ2027-01-13:",
    "6639": "Ġ2027-01-15:",
    "6640": "Ġ2027-01-16:",
    "6641": "Ġ2027-01-18:",
    "6642": "Ġ2027-01-19:",
    "6643": "Ġ2027-01-20:",
    "6644": "Ġ2027-01-21:",
    "6645": "Ġ2027-01-23:",
    "6646": "Ġ2027-01-24:",
    "6647": "Ġ2027-01-25:",
    "6648": "Ġ2027-01-27:",
    "6649": "Ġ2027-01-29:",
    "6650": "Ġ2027-01-31:",
    "6651": "Ġ2027-02-03:",
    "6652": "Ġ2027-02-04:",
    "6653": "Ġ2027-02-05:",
    "6654": "Ġ2027-02-07:",
    "6655": "Ġ2027-02-08:",
    "6656": "Ġ2027-02-11:",
    "6657": "Ġ2027-02-12:",
    "6658": "Ġ2027-02-13:",
    "6659": "Ġ2027-02-14:",
    "6660": "Ġ2027-02-16:",
    "6661": "Ġ2027-02-18:",
    "6662": "Ġ14.94",
    "6663": "Ġ2027-02-19:",
    "6664": "Ġ2027-02-20:",
    "6665": "Ġ2027-02-22:",
    "6666": "Ġ2027-02-23:",
    "6667": "Ġ2027-02-26:",
    "6668": "Ġ2027-02-27:",
    "6669": "Ġ2027-02-28:",
    "6670": "Ġ2027-03-01:",
    "6671": "Ġ2027-03-03:",
    "6672": "Ġ2027-03-04:",
    "6673": "Ġ2027-03-05:",
    "6674": "Ġ2027-03-06:",
    "6675": "Ġ2027-03-07:",
    "6676": "Ġ2027-03-09:",
    "6677": "Ġ2027-03-12:",
    "6678": "Ġ2027-03-13:",
    "6679": "Ġ2027-03-14:",
    "6680": "Ġ2027-03-17:",
    "6681": "Ġ2027-03-18:",
    "6682": "Ġ2027-03-19:",
    "6683": "Ġ2027-03-21:",
    "6684": "Ġ2027-03-22:",
    "6685": "Ġ2027-03-24:",
    "6686": "Ġ2027-03-27:",
    "6687": "Ġ2027-03-28:",
    "6688": "Ġ2027-03-31:",
    "6689": "Ġ2027-04-01:",
    "6690": "Ġ2027-04-04:",
    "6691": "Ġ2027-04-07:",
    "6692": "Ġ2027-04-10:",
    "6693": "Ġ20.54",
    "6694": "Ġ2027-04-12:",
    "6695": "Ġ2027-04-13:",
    "6696": "Ġ2027-04-15:",
    "6697": "Ġ2027-04-16:",
    "6698": "Ġ2027-04-18:",
    "6699": "Ġ2027-04-20:",
    "6700": "Ġ2027-04-22:",
    "6701": "Ġ2027-04-23:",
    "6702": "Ġ2027-04-26:",
    "6703": "Ġ2027-04-29:",
    "6704": "Ġ2027-05-01:",
    "6705": "Ġ2027-05-03:",
    "6706": "Ġ2027-05-05:",
    "6707": "Ġ2027-05-06:",
    "6708": "Ġ2027-05-08:",
    "6709": "Ġ2027-05-10:",
    "6710": "Ġ2027-05-13:",
    "6711": "Ġ2027-05-14:",
    "6712": "Ġ2027-05-17:",
    "6713": "Ġ2027-05-19:",
    "6714": "Ġ2027-05-21:",
    "6715": "Ġ2027-05-23:",
    "6716": "Ġ2027-05-24:",
    "6717": "Ġ2027-05-25:",
    "6718": "Ġ2027-05-28:",
    "6719": "Ġ2027-05-30:",
    "6720": "Ġ16.97",
    "6721": "Ġ2027-06-01:",
    "6722": "Ġ2027-06-02:",
    "6723": "Ġ2027-06-03:",
    "6724": "Ġ2027-06-04:",
    "6725": "Ġ2027-06-05:",
    "6726": "Ġ2027-06-07:",
    "6727": "Ġ2027-06-09:",
    "6728": "Ġ2027-06-11:",
    "6729": "Ġ2027-06-12:",
    "6730": "Ġ2027-06-15:",
    "6731": "Ġ2027-06-16:",
    "6732": "Ġ2027-06-18:",
    "6733": "Ġ2027-06-19:",
    "6734": "Ġ2027-06-22:",
    "6735": "Ġ2027-06-24:",
    "6736": "Ġ2027-06-26:",
    "6737": "Ġ2027-06-27:",
    "6738": "Ġ2027-06-28:",
    "6739": "Ġ2027-06-30:",
    "6740": "Ġ2027-07-01:",
    "6741": "Ġ2027-07-04:",
    "6742": "Ġ2027-07-06:",
    "6743": "Ġ2027-07-08:",
    "6744": "Ġ2027-07-09:",
    "6745": "Ġ2027-07-11:",
    "6746": "Ġ2027-07-13:",
    "6747": "Ġ2027-07-16:",
    "6748": "Ġ2027-07-17:",
    "6749": "Ġ2027-07-19:",
    "6750": "Ġ2027-07-22:",
    "6751": "Ġ2027-07-23:",
    "6752": "Ġ2027-07-24:",
    "6753": "Ġ2027-07-25:",
    "6754": "Ġ2027-07-26:",
    "6755": "Ġ2027-07-28:",
    "6756": "Ġ2027-07-31:",
    "6757": "Ġ2027-08-02:",
    "6758": "Ġ2027-08-03:",
    "6759": "Ġ2027-08-06:",
    "6760": "Ġ2027-08-07:",
    "6761": "Ġ2027-08-09:",
    "6762": "Ġ2027-08-12:",
    "6763": "Ġ2027-08-14:",
    "6764": "Ġ2027-08-16:",
    "6765": "Ġ2027-08-19:",
    "6766": "Ġ2027-08-22:",
    "6767": "Ġ2027-08-23:",
    "6768": "Ġ2027-08-25:",
    "6769": "Ġ2027-08-26:",
    "6770": "Ġ2027-08-27:",
    "6771": "Ġ2027-08-30:",
    "6772": "Ġ2027-08-31:",
    "6773": "Ġ2027-09-03:",
    "6774": "Ġ2027-09-04:",
    "6775": "Ġ2027-09-05:",
    "6776": "Ġ2027-09-08:",
    "6777": "Ġ2027-09-09:",
    "6778": "Ġ2027-09-10:",
    "6779": "Ġ2027-09-11:",
    "6780": "Ġ14.41",
    "6781": "Ġ2027-09-13:",
    "6782": "Ġ2027-09-14:",
    "6783": "Ġ2027-09-15:",
    "6784": "Ġ2027-09-16:",
    "6785": "Ġ2027-09-17:",
    "6786": "Ġ2027-09-18:",
    "6787": "Ġ2027-09-21:",
    "6788": "Ġ2027-09-22:",
    "6789": "Ġ2027-09-24:",
    "6790": "Ġ2027-09-26:",
    "6791": "Ġ2027-09-28:",
    "6792": "Ġ2027-09-29:",
    "6793": "Ġ2027-09-30:",
    "6794": "Ġ2027-10-01:",
    "6795": "Ġ2027-10-03:",
    "6796": "Ġ2027-10-04:",
    "6797": "Ġ2027-10-05:",
    "6798": "Ġ2027-10-06:",
    "6799": "Ġ2027-10-09:",
    "6800": "Ġ2027-10-10:",
    "6801": "Ġ2027-10-11:",
    "6802": "Ġ2027-10-13:",
    "6803": "Ġ2027-10-15:",
    "6804": "Ġ2027-10-16:",
    "6805": "Ġ2027-10-17:",
    "6806": "Ġ2027-10-18:",
    "6807": "Ġ2027-10-19:",
    "6808": "Ġ2027-10-21:",
    "6809": "Ġ2027-10-23:",
    "6810": "Ġ2027-10-26:",
    "6811": "Ġ2027-10-29:",
    "6812": "Ġ2027-10-30:",
    "6813": "Ġ2027-10-31:",
    "6814": "Ġ2027-11-01:",
    "6815": "Ġ2027-11-04:",
    "6816": "Ġ2027-11-07:",
    "6817": "Ġ2027-11-08:",
    "6818": "Ġ2027-11-09:",
    "6819": "Ġ2027-11-11:",
    "6820": "Ġ2027-11-13:",
    "6821": "Ġ2027-11-16:",
    "6822": "Ġ2027-11-17:",
    "6823": "Ġ2027-11-19:",
    "6824": "Ġ2027-11-21:",
    "6825": "Ġ2027-11-23:",
    "6826": "Ġ2027-11-24:",
    "6827": "Ġ2027-11-25:",
    "6828": "Ġ2027-11-27:",
    "6829": "Ġ2027-11-28:",
    "6830": "Ġ2027-11-29:",
    "6831": "Ġ2027-11-30:",
    "6832": "Ġ2027-12-02:",
    "6833": "Ġ2027-12-03:",
    "6834": "Ġ2027-12-05:",
    "6835": "Ġ2027-12-07:",
    "6836": "Ġ2027-12-08:",
    "6837": "Ġ2027-12-11:",
    "6838": "Ġ2027-12-13:",
    "6839": "Ġ2027-12-14:",
    "6840": "Ġ2027-12-17:",
    "6841": "Ġ2027-12-19:",
    "6842": "Ġ2027-12-21:",
    "6843": "Ġ14.26",
    "6844": "Ġ2027-12-22:",
    "6845": "Ġ2027-12-23:",
    "6846": "Ġ2027-12-25:",
    "6847": "Ġ2027-12-26:",
    "6848": "Ġ2027-12-27:",
    "6849": "Ġ2027-12-29:",
    "6850": "Ġ2027-12-31:",
    "6851": "Ġ2028-01-01:",
    "6852": "Ġ2028-01-04:",
    "6853": "Ġ2028-01-05:",
    "6854": "Ġ2028-01-08:",
    "6855": "Ġ2028-01-11:",
    "6856": "Ġ2028-01-12:",
    "6857": "Ġ2028-01-13:",
    "6858": "Ġ2028-01-14:",
    "6859": "Ġ2028-01-16:",
    "6860": "Ġ2028-01-19:",
    "6861": "Ġ2028-01-20:",
    "6862": "Ġ2028-01-21:",
    "6863": "Ġ2028-01-23:",
    "6864": "Ġ2028-01-24:",
    "6865": "Ġ2028-01-25:",
    "6866": "Ġ2028-01-27:",
    "6867": "Ġ2028-01-30:",
    "6868": "Ġ2028-02-01:",
    "6869": "Ġ2028-02-03:",
    "6870": "Ġ2028-02-05:",
    "6871": "Ġ2028-02-07:",
    "6872": "Ġ2028-02-09:",
    "6873": "Ġ2028-02-12:",
    "6874": "Ġ2028-02-13:",
    "6875": "Ġ2028-02-15:",
    "6876": "Ġ2028-02-17:",
    "6877": "Ġ2028-02-19:",
    "6878": "Ġ2028-02-22:",
    "6879": "Ġ2028-02-23:",
    "6880": "Ġ2028-02-24:",
    "6881": "Ġ2028-02-25:",
    "6882": "Ġ2028-02-26:",
    "6883": "Ġ2028-02-28:",
    "6884": "Ġ16.04",
    "6885": "Ġ2028-03-01:",
    "6886": "Ġ2028-03-02:",
    "6887": "Ġ2028-03-03:",
    "6888": "Ġ2028-03-05:",
    "6889": "Ġ2028-03-06:",
    "6890": "Ġ2028-03-09:",
    "6891": "Ġ2028-03-10:",
    "6892": "Ġ2028-03-13:",
    "6893": "Ġ2028-03-14:",
    "6894": "Ġ2028-03-16:",
    "6895": "Ġ2028-03-17:",
    "6896": "Ġ2028-03-20:",
    "6897": "Ġ2028-03-21:",
    "6898": "Ġ2028-03-23:",
    "6899": "Ġ2028-03-26:",
    "6900": "Ġ2028-03-27:",
    "6901": "Ġ2028-03-29:",
    "6902": "Ġ2028-03-30:",
    "6903": "Ġ2028-03-31:",
    "6904": "Ġ2028-04-01:",
    "6905": "Ġ2028-04-03:",
    "6906": "Ġ2028-04-06:",
    "6907": "Ġ2028-04-09:",
    "6908": "Ġ2028-04-10:",
    "6909": "Ġ2028-04-12:",
    "6910": "Ġ2028-04-13:",
    "6911": "Ġ21.07",
    "6912": "Ġ2028-04-15:",
    "6913": "Ġ2028-04-16:",
    "6914": "Ġ2028-04-17:",
    "6915": "Ġ2028-04-19:",
    "6916": "Ġ2028-04-20:",
    "6917": "Ġ2028-04-22:",
    "6918": "Ġ2028-04-25:",
    "6919": "Ġ2028-04-28:",
    "6920": "Ġ2028-05-01:",
    "6921": "Ġ2028-05-03:",
    "6922": "Ġ2028-05-04:",
    "6923": "Ġ2028-05-05:",
    "6924": "Ġ2028-05-07:",
    "6925": "Ġ2028-05-10:",
    "6926": "Ġ2028-05-12:",
    "6927": "Ġ2028-05-15:",
    "6928": "Ġ2028-05-16:",
    "6929": "Ġ2028-05-17:",
    "6930": "Ġ2028-05-19:",
    "6931": "Ġ2028-05-20:",
    "6932": "Ġ21.71",
    "6933": "Ġ2028-05-21:",
    "6934": "Ġ2028-05-23:",
    "6935": "Ġ2028-05-24:",
    "6936": "Ġ2028-05-25:",
    "6937": "Ġ2028-05-26:",
    "6938": "Ġ2028-05-27:",
    "6939": "Ġ2028-05-28:",
    "6940": "Ġ2028-05-30:",
    "6941": "Ġ2028-06-02:",
    "6942": "Ġ2028-06-05:",
    "6943": "Ġ2028-06-06:",
    "6944": "Ġ2028-06-08:",
    "6945": "Ġ2028-06-10:",
    "6946": "Ġ2028-06-13:",
    "6947": "Ġ21.55",
    "6948": "Ġ2028-06-15:",
    "6949": "Ġ2028-06-16:",
    "6950": "Ġ2028-06-18:",
    "6951": "Ġ2028-06-19:",
    "6952": "Ġ2028-06-22:",
    "6953": "Ġ2028-06-23:",
    "6954": "Ġ2028-06-24:",
    "6955": "Ġ2028-06-25:",
    "6956": "Ġ2028-06-26:",
    "6957": "Ġ2028-06-27:",
    "6958": "Ġ2028-06-28:",
    "6959": "Ġ2028-06-30:",
    "6960": "Ġ2028-07-01:",
    "6961": "Ġ2028-07-03:",
    "6962": "Ġ2028-07-04:",
    "6963": "Ġ2028-07-05:",
    "6964": "Ġ2028-07-06:",
    "6965": "Ġ2028-07-08:",
    "6966": "Ġ2028-07-11:",
    "6967": "Ġ2028-07-13:",
    "6968": "Ġ2028-07-14:",
    "6969": "Ġ2028-07-15:",
    "6970": "Ġ2028-07-16:",
    "6971": "Ġ2028-07-17:",
    "6972": "Ġ2028-07-20:",
    "6973": "Ġ2028-07-21:",
    "6974": "Ġ2028-07-23:",
    "6975": "Ġ2028-07-25:",
    "6976": "Ġ2028-07-28:",
    "6977": "Ġ17.41",
    "6978": "Ġ2028-07-29:",
    "6979": "Ġ2028-07-30:",
    "6980": "Ġ3.26",
    "6981": "Ġ2028-07-31:",
    "6982": "Ġ2028-08-01:",
    "6983": "Ġ2028-08-04:",
    "6984": "Ġ2028-08-06:",
    "6985": "Ġ2028-08-08:",
    "6986": "Ġ2028-08-09:",
    "6987": "Ġ2028-08-12:",
    "6988": "Ġ2028-08-13:",
    "6989": "Ġ2028-08-14:",
    "6990": "Ġ2028-08-15:",
    "6991": "Ġ2028-08-18:",
    "6992": "Ġ2028-08-21:",
    "6993": "Ġ2028-08-22:",
    "6994": "Ġ2028-08-23:",
    "6995": "Ġ2028-08-24:",
    "6996": "Ġ2028-08-27:",
    "6997": "Ġ2028-08-30:",
    "6998": "Ġ2028-08-31:",
    "6999": "Ġ2028-09-03:",
    "7000": "Ġ2028-09-04:",
    "7001": "Ġ2028-09-05:",
    "7002": "Ġ2028-09-06:",
    "7003": "Ġ2028-09-08:",
    "7004": "Ġ2028-09-09:",
    "7005": "Ġ2028-09-12:",
    "7006": "Ġ2028-09-13:",
    "7007": "Ġ2028-09-14:",
    "7008": "Ġ2028-09-15:",
    "7009": "Ġ2028-09-16:",
    "7010": "Ġ2028-09-17:",
    "7011": "Ġ2028-09-19:",
    "7012": "Ġ12.48",
    "7013": "Ġ2028-09-20:",
    "7014": "Ġ18.27",
    "7015": "Ġ2028-09-21:",
    "7016": "Ġ2028-09-23:",
    "7017": "Ġ2028-09-24:",
    "7018": "Ġ13.96",
    "7019": "Ġ2028-09-25:",
    "7020": "Ġ2028-09-27:",
    "7021": "Ġ2028-09-28:",
    "7022": "Ġ2028-09-30:",
    "7023": "Ġ2028-10-02:",
    "7024": "Ġ2028-10-03:",
    "7025": "Ġ2028-10-05:",
    "7026": "Ġ2028-10-06:",
    "7027": "Ġ2028-10-08:",
    "7028": "Ġ2028-10-09:",
    "7029": "Ġ2028-10-11:",
    "7030": "Ġ2028-10-12:",
    "7031": "Ġ2028-10-13:",
    "7032": "Ġ2028-10-16:",
    "7033": "Ġ2028-10-18:",
    "7034": "Ġ2028-10-19:",
    "7035": "Ġ2028-10-20:",
    "7036": "Ġ2028-10-22:",
    "7037": "Ġ2028-10-23:",
    "7038": "Ġ2028-10-25:",
    "7039": "Ġ2028-10-28:",
    "7040": "Ġ2028-10-30:",
    "7041": "Ġ2028-11-02:",
    "7042": "Ġ2028-11-03:",
    "7043": "Ġ2028-11-04:",
    "7044": "Ġ2028-11-05:",
    "7045": "Ġ2028-11-06:",
    "7046": "Ġ2028-11-07:",
    "7047": "Ġ2028-11-08:",
    "7048": "Ġ2028-11-10:",
    "7049": "Ġ2028-11-12:",
    "7050": "Ġ2028-11-14:",
    "7051": "Ġ2028-11-15:",
    "7052": "Ġ2028-11-17:",
    "7053": "Ġ2028-11-19:",
    "7054": "Ġ2028-11-21:",
    "7055": "Ġ2028-11-22:",
    "7056": "Ġ2028-11-23:",
    "7057": "Ġ2028-11-25:",
    "7058": "Ġ2028-11-28:",
    "7059": "Ġ2028-11-29:",
    "7060": "Ġ2028-12-02:",
    "7061": "Ġ2028-12-03:",
    "7062": "Ġ2028-12-04:",
    "7063": "Ġ2028-12-06:",
    "7064": "Ġ2028-12-08:",
    "7065": "Ġ2028-12-10:",
    "7066": "Ġ18.48",
    "7067": "Ġ2028-12-12:",
    "7068": "Ġ2028-12-14:",
    "7069": "Ġ2028-12-16:",
    "7070": "Ġ2028-12-17:",
    "7071": "Ġ2028-12-18:",
    "7072": "Ġ2028-12-20:",
    "7073": "Ġ2028-12-21:",
    "7074": "Ġ2028-12-23:",
    "7075": "Ġ2028-12-24:",
    "7076": "Ġ2028-12-25:",
    "7077": "Ġ2028-12-26:",
    "7078": "Ġ2028-12-28:",
    "7079": "Ġ2028-12-29:",
    "7080": "Ġ2028-12-31:",
    "7081": "Ġ2029-01-01:",
    "7082": "Ġ2029-01-04:",
    "7083": "Ġ2029-01-06:",
    "7084": "Ġ2029-01-07:",
    "7085": "Ġ2029-01-08:",
    "7086": "Ġ2029-01-11:",
    "7087": "Ġ2029-01-12:",
    "7088": "Ġ2029-01-15:",
    "7089": "Ġ2029-01-16:",
    "7090": "Ġ2029-01-17:",
    "7091": "Ġ2029-01-18:",
    "7092": "Ġ2029-01-19:",
    "7093": "Ġ2029-01-20:",
    "7094": "Ġ2029-01-21:",
    "7095": "Ġ14.07",
    "7096": "Ġ2029-01-23:",
    "7097": "Ġ2029-01-25:",
    "7098": "Ġ2029-01-27:",
    "7099": "Ġ2029-01-28:",
    "7100": "Ġ2029-01-30:",
    "7101": "Ġ2029-01-31:",
    "7102": "Ġ2029-02-01:",
    "7103": "Ġ2029-02-02:",
    "7104": "Ġ2029-02-03:",
    "7105": "Ġ2029-02-04:",
    "7106": "Ġ14.11",
    "7107": "Ġ2029-02-05:",
    "7108": "Ġ2029-02-06:",
    "7109": "Ġ2029-02-08:",
    "7110": "Ġ2029-02-09:",
    "7111": "Ġ2029-02-10:",
    "7112": "Ġ2029-02-12:",
    "7113": "Ġ2029-02-13:",
    "7114": "Ġ18.28",
    "7115": "Ġ2029-02-14:",
    "7116": "Ġ2029-02-15:",
    "7117": "Ġ2029-02-18:",
    "7118": "Ġ2029-02-19:",
    "7119": "Ġ2029-02-20:",
    "7120": "Ġ2029-02-22:",
    "7121": "Ġ2029-02-25:",
    "7122": "Ġ2029-02-27:",
    "7123": "Ġ2029-02-28:",
    "7124": "Ġ2029-03-03:",
    "7125": "Ġ2029-03-06:",
    "7126": "Ġ2029-03-07:",
    "7127": "Ġ2029-03-09:",
    "7128": "Ġ2029-03-12:",
    "7129": "Ġ2029-03-14:",
    "7130": "Ġ2029-03-16:",
    "7131": "Ġ2029-03-17:",
    "7132": "Ġ17.13",
    "7133": "Ġ2029-03-18:",
    "7134": "Ġ2029-03-19:",
    "7135": "Ġ2029-03-22:",
    "7136": "Ġ2029-03-23:",
    "7137": "Ġ2029-03-25:",
    "7138": "Ġ2029-03-26:",
    "7139": "Ġ2029-03-27:",
    "7140": "Ġ2029-03-28:",
    "7141": "Ġ2029-03-29:",
    "7142": "Ġ2029-03-31:",
    "7143": "Ġ2029-04-02:",
    "7144": "Ġ2029-04-03:",
    "7145": "Ġ2029-04-04:",
    "7146": "Ġ2029-04-07:",
    "7147": "Ġ2029-04-09:",
    "7148": "Ġ2029-04-11:",
    "7149": "Ġ2029-04-12:",
    "7150": "Ġ2029-04-14:",
    "7151": "Ġ2029-04-16:",
    "7152": "Ġ2029-04-19:",
    "7153": "Ġ2029-04-21:",
    "7154": "Ġ2029-04-24:",
    "7155": "Ġ2029-04-25:",
    "7156": "Ġ2029-04-26:",
    "7157": "Ġ2029-04-29:",
    "7158": "Ġ2029-05-01:",
    "7159": "Ġ2029-05-03:",
    "7160": "Ġ2029-05-04:",
    "7161": "Ġ2029-05-05:",
    "7162": "Ġ2029-05-06:",
    "7163": "Ġ2029-05-09:",
    "7164": "Ġ2029-05-10:",
    "7165": "Ġ2029-05-11:",
    "7166": "Ġ2029-05-13:",
    "7167": "Ġ19.41",
    "7168": "Ġ2029-05-14:",
    "7169": "Ġ2029-05-16:",
    "7170": "Ġ2029-05-17:",
    "7171": "Ġ2029-05-19:",
    "7172": "Ġ2029-05-20:",
    "7173": "Ġ2029-05-21:",
    "7174": "Ġ2029-05-22:",
    "7175": "Ġ2029-05-23:",
    "7176": "Ġ2029-05-25:",
    "7177": "Ġ2029-05-27:",
    "7178": "Ġ2029-05-30:",
    "7179": "Ġ2029-06-01:",
    "7180": "Ġ2029-06-04:",
    "7181": "Ġ2029-06-07:",
    "7182": "Ġ2029-06-09:",
    "7183": "Ġ2029-06-10:",
    "7184": "Ġ2029-06-11:",
    "7185": "Ġ2029-06-12:",
    "7186": "Ġ2029-06-15:",
    "7187": "Ġ2029-06-16:",
    "7188": "Ġ2029-06-17:",
    "7189": "Ġ2029-06-20:",
    "7190": "Ġ2029-06-21:",
    "7191": "Ġ2029-06-24:",
    "7192": "Ġ2029-06-25:",
    "7193": "Ġ2029-06-28:",
    "7194": "Ġ2029-07-01:",
    "7195": "Ġ2029-07-02:",
    "7196": "Ġ2029-07-04:",
    "7197": "Ġ2029-07-05:",
    "7198": "Ġ2029-07-06:",
    "7199": "Ġ2029-07-07:",
    "7200": "Ġ2029-07-09:",
    "7201": "Ġ2029-07-10:",
    "7202": "Ġ2029-07-11:",
    "7203": "Ġ2029-07-12:",
    "7204": "Ġ2029-07-14:",
    "7205": "Ġ2029-07-16:",
    "7206": "Ġ2029-07-17:",
    "7207": "Ġ2029-07-19:",
    "7208": "Ġ2029-07-20:",
    "7209": "Ġ2029-07-23:",
    "7210": "Ġ2029-07-25:",
    "7211": "Ġ2029-07-28:",
    "7212": "Ġ2029-07-29:",
    "7213": "Ġ2029-07-30:",
    "7214": "Ġ2029-08-01:",
    "7215": "Ġ2029-08-02:",
    "7216": "Ġ2029-08-05:",
    "7217": "Ġ2029-08-08:",
    "7218": "Ġ2029-08-11:",
    "7219": "Ġ2029-08-12:",
    "7220": "Ġ2029-08-14:",
    "7221": "Ġ2029-08-17:",
    "7222": "Ġ2029-08-18:",
    "7223": "Ġ2029-08-21:",
    "7224": "Ġ2029-08-23:",
    "7225": "Ġ2029-08-24:",
    "7226": "Ġ2029-08-27:",
    "7227": "Ġ2029-08-29:",
    "7228": "Ġ2029-08-30:",
    "7229": "Ġ2029-09-02:",
    "7230": "Ġ2029-09-03:",
    "7231": "Ġ2029-09-05:",
    "7232": "Ġ2029-09-07:",
    "7233": "Ġ2029-09-08:",
    "7234": "Ġ2029-09-10:",
    "7235": "Ġ2029-09-12:",
    "7236": "Ġ2029-09-13:",
    "7237": "Ġ2029-09-15:",
    "7238": "Ġ2029-09-17:",
    "7239": "Ġ2029-09-18:",
    "7240": "Ġ2029-09-19:",
    "7241": "Ġ2029-09-22:",
    "7242": "Ġ2029-09-25:",
    "7243": "Ġ2029-09-28:",
    "7244": "Ġ2029-09-29:",
    "7245": "Ġ2029-09-30:",
    "7246": "Ġ2029-10-03:",
    "7247": "Ġ2029-10-05:",
    "7248": "Ġ2029-10-06:",
    "7249": "Ġ2029-10-07:",
    "7250": "Ġ2029-10-08:",
    "7251": "Ġ2029-10-11:",
    "7252": "Ġ2029-10-12:",
    "7253": "Ġ2029-10-13:",
    "7254": "Ġ2029-10-14:",
    "7255": "Ġ2029-10-16:",
    "7256": "Ġ2029-10-17:",
    "7257": "Ġ2029-10-19:",
    "7258": "Ġ2029-10-22:",
    "7259": "Ġ14.32",
    "7260": "Ġ2029-10-23:",
    "7261": "Ġ2029-10-24:",
    "7262": "Ġ2029-10-25:",
    "7263": "Ġ2029-10-27:",
    "7264": "Ġ2029-10-29:",
    "7265": "Ġ2029-10-30:",
    "7266": "Ġ2029-11-02:",
    "7267": "Ġ2029-11-04:",
    "7268": "Ġ2029-11-06:",
    "7269": "Ġ2029-11-07:",
    "7270": "Ġ2029-11-08:",
    "7271": "Ġ16.35",
    "7272": "Ġ2029-11-09:",
    "7273": "Ġ2029-11-10:",
    "7274": "Ġ20.69",
    "7275": "Ġ2029-11-11:",
    "7276": "Ġ2029-11-12:",
    "7277": "Ġ2029-11-14:",
    "7278": "Ġ2029-11-16:",
    "7279": "Ġ2029-11-17:",
    "7280": "Ġ21.45",
    "7281": "Ġ2029-11-18:",
    "7282": "Ġ2029-11-19:",
    "7283": "Ġ2029-11-20:",
    "7284": "Ġ2029-11-21:",
    "7285": "Ġ2029-11-23:",
    "7286": "Ġ2029-11-26:",
    "7287": "Ġ2029-11-29:",
    "7288": "Ġ2029-12-02:",
    "7289": "Ġ2029-12-04:",
    "7290": "Ġ2029-12-05:",
    "7291": "Ġ2029-12-07:",
    "7292": "Ġ2029-12-08:",
    "7293": "Ġ2029-12-09:",
    "7294": "Ġ2029-12-11:",
    "7295": "Ġ2029-12-13:",
    "7296": "Ġ2029-12-16:",
    "7297": "Ġ2029-12-17:",
    "7298": "Ġ2029-12-18:",
    "7299": "Ġ2029-12-19:",
    "7300": "Ġ2029-12-22:",
    "7301": "Ġ2029-12-25:",
    "7302": "Ġ2029-12-28:",
    "7303": "Ġ2029-12-31:",
    "7304": "Ġ2030-01-02:",
    "7305": "Ġ2030-01-03:",
    "7306": "Ġ2030-01-04:",
    "7307": "Ġ2030-01-05:",
    "7308": "Ġ2030-01-08:",
    "7309": "Ġ2030-01-11:",
    "7310": "Ġ2030-01-14:",
    "7311": "Ġ2030-01-15:",
    "7312": "Ġ2030-01-18:",
    "7313": "Ġ2030-01-21:",
    "7314": "Ġ2030-01-24:",
    "7315": "Ġ2030-01-25:",
    "7316": "Ġ2030-01-27:",
    "7317": "Ġ2030-01-30:",
    "7318": "Ġ2030-01-31:",
    "7319": "Ġ2030-02-01:",
    "7320": "Ġ2030-02-02:",
    "7321": "Ġ2030-02-03:",
    "7322": "Ġ2030-02-04:",
    "7323": "Ġ2030-02-07:",
    "7324": "Ġ2030-02-08:",
    "7325": "Ġ2030-02-10:",
    "7326": "Ġ2030-02-11:",
    "7327": "Ġ2030-02-12:",
    "7328": "Ġ2030-02-13:",
    "7329": "Ġ2030-02-14:",
    "7330": "Ġ2030-02-15:",
    "7331": "Ġ2030-02-16:",
    "7332": "Ġ2030-02-17:",
    "7333": "Ġ2030-02-18:",
    "7334": "Ġ2030-02-21:",
    "7335": "Ġ2030-02-23:",
    "7336": "Ġ2030-02-26:",
    "7337": "Ġ2030-02-27:",
    "7338": "Ġ2030-02-28:",
    "7339": "Ġ2030-03-02:",
    "7340": "Ġ2030-03-03:",
    "7341": "Ġ2030-03-05:",
    "7342": "Ġ2030-03-06:",
    "7343": "Ġ2030-03-09:",
    "7344": "Ġ2030-03-12:",
    "7345": "Ġ2030-03-13:",
    "7346": "Ġ18.14",
    "7347": "Ġ2030-03-14:",
    "7348": "Ġ2030-03-16:",
    "7349": "Ġ2030-03-18:",
    "7350": "Ġ2030-03-20:",
    "7351": "Ġ2030-03-21:",
    "7352": "Ġ14.88",
    "7353": "Ġ2030-03-22:",
    "7354": "Ġ2030-03-23:",
    "7355": "Ġ2030-03-24:",
    "7356": "Ġ2030-03-26:",
    "7357": "Ġ2030-03-27:",
    "7358": "Ġ2030-03-30:",
    "7359": "Ġ2030-04-02:",
    "7360": "Ġ2030-04-03:",
    "7361": "Ġ2030-04-06:",
    "7362": "Ġ2030-04-07:",
    "7363": "Ġ2030-04-09:",
    "7364": "Ġ2030-04-10:",
    "7365": "Ġ2030-04-12:",
    "7366": "Ġ2030-04-14:",
    "7367": "Ġ2030-04-16:",
    "7368": "Ġ2030-04-19:",
    "7369": "Ġ2030-04-20:",
    "7370": "Ġ2030-04-23:",
    "7371": "Ġ2030-04-25:",
    "7372": "Ġ2030-04-26:",
    "7373": "Ġ2030-04-27:",
    "7374": "Ġ2030-04-29:",
    "7375": "Ġ2030-05-02:",
    "7376": "Ġ2030-05-04:",
    "7377": "Ġ2030-05-05:",
    "7378": "Ġ2030-05-06:",
    "7379": "Ġ2030-05-09:",
    "7380": "Ġ2030-05-10:",
    "7381": "Ġ2030-05-11:",
    "7382": "Ġ2030-05-12:",
    "7383": "Ġ2030-05-15:",
    "7384": "Ġ2030-05-18:",
    "7385": "Ġ2030-05-19:",
    "7386": "Ġ2030-05-20:",
    "7387": "Ġ2030-05-21:",
    "7388": "Ġ2030-05-22:",
    "7389": "Ġ2030-05-24:",
    "7390": "Ġ2030-05-25:",
    "7391": "Ġ2030-05-26:",
    "7392": "Ġ2030-05-27:",
    "7393": "Ġ2030-05-30:",
    "7394": "Ġ2030-05-31:",
    "7395": "Ġ2030-06-01:",
    "7396": "Ġ2030-06-02:",
    "7397": "Ġ2030-06-03:",
    "7398": "Ġ2030-06-06:",
    "7399": "Ġ20.85",
    "7400": "Ġ2030-06-08:",
    "7401": "Ġ2030-06-09:",
    "7402": "Ġ2030-06-11:",
    "7403": "Ġ2030-06-13:",
    "7404": "Ġ2030-06-14:",
    "7405": "Ġ2030-06-16:",
    "7406": "Ġ2030-06-17:",
    "7407": "Ġ2030-06-19:",
    "7408": "Ġ2030-06-20:",
    "7409": "Ġ2030-06-21:",
    "7410": "Ġ2030-06-22:",
    "7411": "Ġ2030-06-24:",
    "7412": "Ġ2030-06-27:",
    "7413": "Ġ2030-06-29:",
    "7414": "Ġ2030-06-30:",
    "7415": "Ġ2030-07-01:",
    "7416": "Ġ2030-07-02:",
    "7417": "Ġ19.05",
    "7418": "Ġ2030-07-03:",
    "7419": "Ġ18.62",
    "7420": "Ġ2030-07-05:",
    "7421": "Ġ2030-07-07:",
    "7422": "Ġ2030-07-08:",
    "7423": "Ġ2030-07-10:",
    "7424": "Ġ2030-07-12:",
    "7425": "Ġ2030-07-14:",
    "7426": "Ġ2030-07-15:",
    "7427": "Ġ2030-07-17:",
    "7428": "Ġ2030-07-18:",
    "7429": "Ġ2030-07-20:",
    "7430": "Ġ2030-07-21:",
    "7431": "Ġ2030-07-24:",
    "7432": "Ġ2030-07-26:",
    "7433": "Ġ2030-07-27:",
    "7434": "Ġ2030-07-29:",
    "7435": "Ġ2030-07-30:",
    "7436": "Ġ2030-08-01:",
    "7437": "Ġ2030-08-04:",
    "7438": "Ġ2030-08-06:",
    "7439": "Ġ2030-08-09:",
    "7440": "Ġ2030-08-10:",
    "7441": "Ġ2030-08-11:",
    "7442": "Ġ2030-08-13:",
    "7443": "Ġ2030-08-14:",
    "7444": "Ġ2030-08-17:",
    "7445": "Ġ2030-08-18:",
    "7446": "Ġ2030-08-20:",
    "7447": "Ġ12.57",
    "7448": "Ġ2030-08-22:",
    "7449": "Ġ2030-08-24:",
    "7450": "Ġ2030-08-25:",
    "7451": "Ġ2030-08-27:",
    "7452": "Ġ2030-08-28:",
    "7453": "Ġ2030-08-29:",
    "7454": "Ġ2030-08-30:",
    "7455": "Ġ2030-09-01:",
    "7456": "Ġ2030-09-02:",
    "7457": "Ġ2030-09-04:",
    "7458": "Ġ2030-09-05:",
    "7459": "Ġ21.74",
    "7460": "Ġ2030-09-06:",
    "7461": "Ġ2030-09-08:",
    "7462": "Ġ2030-09-11:",
    "7463": "Ġ2030-09-14:",
    "7464": "Ġ2030-09-17:",
    "7465": "Ġ2030-09-20:",
    "7466": "Ġ2030-09-21:",
    "7467": "Ġ2030-09-24:",
    "7468": "Ġ2030-09-26:",
    "7469": "Ġ2030-09-27:",
    "7470": "Ġ2030-09-28:",
    "7471": "Ġ2030-09-29:",
    "7472": "Ġ2030-09-30:",
    "7473": "Ġ2030-10-03:",
    "7474": "Ġ2030-10-05:",
    "7475": "Ġ2030-10-06:",
    "7476": "Ġ3.51",
    "7477": "Ġ2030-10-08:",
    "7478": "Ġ2030-10-10:",
    "7479": "Ġ2030-10-12:",
    "7480": "Ġ2030-10-14:",
    "7481": "Ġ2030-10-15:",
    "7482": "Ġ2030-10-17:",
    "7483": "Ġ2030-10-18:",
    "7484": "Ġ2030-10-19:",
    "7485": "Ġ2030-10-21:",
    "7486": "Ġ15.02",
    "7487": "Ġ2030-10-23:",
    "7488": "Ġ2030-10-24:",
    "7489": "Ġ2030-10-25:",
    "7490": "Ġ2030-10-26:",
    "7491": "Ġ2030-10-27:",
    "7492": "Ġ2030-10-28:",
    "7493": "Ġ2030-10-29:",
    "7494": "Ġ2030-10-30:",
    "7495": "Ġ2030-10-31:",
    "7496": "Ġ2030-11-02:",
    "7497": "Ġ2030-11-03:",
    "7498": "Ġ2030-11-04:",
    "7499": "Ġ2030-11-06:",
    "7500": "Ġ2030-11-09:",
    "7501": "Ġ2030-11-11:",
    "7502": "Ġ2030-11-13:",
    "7503": "Ġ2030-11-14:",
    "7504": "Ġ2030-11-15:",
    "7505": "Ġ2030-11-16:",
    "7506": "Ġ2030-11-19:",
    "7507": "Ġ13.28",
    "7508": "Ġ2030-11-21:",
    "7509": "Ġ2030-11-22:",
    "7510": "Ġ2030-11-23:",
    "7511": "Ġ2030-11-24:",
    "7512": "Ġ2030-11-26:",
    "7513": "Ġ2030-11-28:",
    "7514": "Ġ2030-11-30:",
    "7515": "Ġ2030-12-01:",
    "7516": "Ġ2030-12-04:",
    "7517": "Ġ2030-12-07:",
    "7518": "Ġ2030-12-09:",
    "7519": "Ġ2030-12-11:",
    "7520": "Ġ2030-12-12:",
    "7521": "Ġ2030-12-14:",
    "7522": "Ġ2030-12-15:",
    "7523": "Ġ2030-12-16:",
    "7524": "Ġ2030-12-17:",
    "7525": "Ġ2030-12-18:",
    "7526": "Ġ12:47/mi,",
    "7527": "Ġ2030-12-19:",
    "7528": "Ġ2030-12-20:",
    "7529": "Ġ2030-12-21:",
    "7530": "Ġ2030-12-22:",
    "7531": "Ġ2030-12-25:",
    "7532": "Ġ2030-12-26:",
    "7533": "Ġ2030-12-28:",
    "7534": "Ġ14.67",
    "7535": "Ġ2030-12-31:",
    "7536": "Ġ2031-01-01:",
    "7537": "Ġ2031-01-02:",
    "7538": "Ġ2031-01-03:",
    "7539": "Ġ2031-01-05:",
    "7540": "Ġ2031-01-06:",
    "7541": "Ġ2031-01-07:",
    "7542": "Ġ2031-01-10:",
    "7543": "Ġ2031-01-11:",
    "7544": "Ġ2031-01-12:",
    "7545": "Ġ2031-01-14:",
    "7546": "Ġ2031-01-15:",
    "7547": "Ġ2031-01-16:",
    "7548": "Ġ2031-01-19:",
    "7549": "Ġ2031-01-20:",
    "7550": "Ġ2031-01-23:",
    "7551": "Ġ2031-01-25:",
    "7552": "Ġ2031-01-26:",
    "7553": "Ġ2031-01-27:",
    "7554": "Ġ2031-01-28:",
    "7555": "Ġ2031-01-29:",
    "7556": "Ġ2031-01-30:",
    "7557": "Ġ2031-02-02:",
    "7558": "Ġ2031-02-04:",
    "7559": "Ġ2031-02-05:",
    "7560": "Ġ2031-02-06:",
    "7561": "Ġ2031-02-08:",
    "7562": "Ġ2031-02-09:",
    "7563": "Ġ2031-02-10:",
    "7564": "Ġ2031-02-12:",
    "7565": "Ġ2031-02-14:",
    "7566": "Ġ2031-02-15:",
    "7567": "Ġ2031-02-16:",
    "7568": "Ġ2031-02-17:",
    "7569": "Ġ18.46",
    "7570": "Ġ2031-02-18:",
    "7571": "Ġ2031-02-19:",
    "7572": "Ġ2031-02-20:",
    "7573": "Ġ2031-02-22:",
    "7574": "Ġ19.53",
    "7575": "Ġ2031-02-23:",
    "7576": "Ġ2031-02-26:",
    "7577": "Ġ2031-03-01:",
    "7578": "Ġ2031-03-02:",
    "7579": "Ġ2031-03-03:",
    "7580": "Ġ2031-03-04:",
    "7581": "Ġ2031-03-06:",
    "7582": "Ġ2031-03-07:",
    "7583": "Ġ2031-03-08:",
    "7584": "Ġ2031-03-09:",
    "7585": "Ġ2031-03-10:",
    "7586": "Ġ2031-03-11:",
    "7587": "Ġ2031-03-13:",
    "7588": "Ġ2031-03-14:",
    "7589": "Ġ2031-03-15:",
    "7590": "Ġ2031-03-16:",
    "7591": "Ġ2031-03-18:",
    "7592": "Ġ2031-03-19:",
    "7593": "Ġ2031-03-20:",
    "7594": "Ġ2031-03-21:",
    "7595": "Ġ2031-03-22:",
    "7596": "Ġ2031-03-24:",
    "7597": "Ġ2031-03-26:",
    "7598": "Ġ2031-03-27:",
    "7599": "Ġ2031-03-28:",
    "7600": "Ġ2031-03-29:",
    "7601": "Ġ2031-04-01:",
    "7602": "Ġ2031-04-02:",
    "7603": "Ġ2031-04-04:",
    "7604": "Ġ2031-04-05:",
    "7605": "Ġ2031-04-08:",
    "7606": "Ġ2031-04-09:",
    "7607": "Ġ2031-04-11:",
    "7608": "Ġ2031-04-12:",
    "7609": "Ġ2031-04-14:",
    "7610": "Ġ2031-04-17:",
    "7611": "Ġ2031-04-18:",
    "7612": "Ġ2031-04-20:",
    "7613": "Ġ2031-04-21:",
    "7614": "Ġ2031-04-23:",
    "7615": "Ġ2031-04-25:",
    "7616": "Ġ2031-04-28:",
    "7617": "Ġ2031-04-30:",
    "7618": "Ġ2031-05-02:",
    "7619": "Ġ2031-05-05:",
    "7620": "Ġ2031-05-06:",
    "7621": "Ġ17.38",
    "7622": "Ġ2031-05-07:",
    "7623": "Ġ2031-05-08:",
    "7624": "Ġ2031-05-10:",
    "7625": "Ġ2031-05-12:",
    "7626": "Ġ2031-05-15:",
    "7627": "Ġ2031-05-16:",
    "7628": "Ġ2031-05-17:",
    "7629": "Ġ2031-05-18:",
    "7630": "Ġ2031-05-21:",
    "7631": "Ġ2031-05-22:",
    "7632": "Ġ2031-05-24:",
    "7633": "Ġ2031-05-26:",
    "7634": "Ġ2031-05-27:",
    "7635": "Ġ2031-05-28:",
    "7636": "Ġ2031-05-30:",
    "7637": "Ġ2031-05-31:",
    "7638": "Ġ2031-06-01:",
    "7639": "Ġ2031-06-03:",
    "7640": "Ġ2031-06-06:",
    "7641": "Ġ2031-06-09:",
    "7642": "Ġ2031-06-10:",
    "7643": "Ġ2031-06-11:",
    "7644": "Ġ2031-06-14:",
    "7645": "Ġ2031-06-17:",
    "7646": "Ġ2031-06-19:",
    "7647": "Ġ2031-06-21:",
    "7648": "Ġ2031-06-23:",
    "7649": "Ġ2031-06-24:",
    "7650": "Ġ2031-06-26:",
    "7651": "Ġ2031-06-28:",
    "7652": "Ġ2031-06-29:",
    "7653": "Ġ2031-06-30:",
    "7654": "Ġ2031-07-01:",
    "7655": "Ġ2031-07-02:",
    "7656": "Ġ2031-07-05:",
    "7657": "Ġ2031-07-06:",
    "7658": "Ġ2031-07-07:",
    "7659": "Ġ2031-07-08:",
    "7660": "Ġ2031-07-09:",
    "7661": "Ġ2031-07-12:",
    "7662": "Ġ2031-07-15:",
    "7663": "Ġ2031-07-17:",
    "7664": "Ġ2031-07-18:",
    "7665": "Ġ2031-07-20:",
    "7666": "Ġ2031-07-23:",
    "7667": "Ġ2031-07-25:",
    "7668": "Ġ2031-07-27:",
    "7669": "Ġ2031-07-29:",
    "7670": "Ġ2031-07-30:",
    "7671": "Ġ2031-07-31:",
    "7672": "Ġ2031-08-02:",
    "7673": "Ġ2031-08-03:",
    "7674": "Ġ2031-08-04:",
    "7675": "Ġ2031-08-06:",
    "7676": "Ġ2031-08-09:",
    "7677": "Ġ2031-08-10:",
    "7678": "Ġ2031-08-11:",
    "7679": "Ġ2031-08-14:",
    "7680": "Ġ2031-08-15:",
    "7681": "Ġ16.65",
    "7682": "Ġ2031-08-16:",
    "7683": "Ġ2031-08-18:",
    "7684": "Ġ2031-08-20:",
    "7685": "Ġ2031-08-21:",
    "7686": "Ġ2031-08-22:",
    "7687": "Ġ2031-08-23:",
    "7688": "Ġ2031-08-24:",
    "7689": "Ġ2031-08-25:",
    "7690": "Ġ21.37",
    "7691": "Ġ2031-08-28:",
    "7692": "Ġ2031-08-30:",
    "7693": "Ġ2031-08-31:",
    "7694": "Ġ2031-09-01:",
    "7695": "Ġ2031-09-03:",
    "7696": "Ġ2031-09-06:",
    "7697": "Ġ2031-09-07:",
    "7698": "Ġ4:55/mi,",
    "7699": "Ġ2031-09-09:",
    "7700": "Ġ2031-09-10:",
    "7701": "Ġ2031-09-11:",
    "7702": "Ġ2031-09-13:",
    "7703": "Ġ2031-09-15:",
    "7704": "Ġ2031-09-17:",
    "7705": "Ġ2031-09-18:",
    "7706": "Ġ2031-09-19:",
    "7707": "Ġ2031-09-22:",
    "7708": "Ġ2031-09-23:",
    "7709": "Ġ2031-09-24:",
    "7710": "Ġ2031-09-25:",
    "7711": "Ġ2031-09-28:",
    "7712": "Ġ2031-10-01:",
    "7713": "Ġ2031-10-03:",
    "7714": "Ġ2031-10-05:",
    "7715": "Ġ2031-10-07:",
    "7716": "Ġ2031-10-10:",
    "7717": "Ġ2031-10-11:",
    "7718": "Ġ2031-10-13:",
    "7719": "Ġ20.57",
    "7720": "Ġ2031-10-15:",
    "7721": "Ġ2031-10-17:",
    "7722": "Ġ2031-10-18:",
    "7723": "Ġ2031-10-19:",
    "7724": "Ġ18.45",
    "7725": "Ġ2031-10-20:",
    "7726": "Ġ2031-10-22:",
    "7727": "Ġ2031-10-23:",
    "7728": "Ġ2031-10-24:",
    "7729": "Ġ2031-10-26:",
    "7730": "Ġ2031-10-29:",
    "7731": "Ġ15.81",
    "7732": "Ġ2031-11-01:",
    "7733": "Ġ2031-11-02:",
    "7734": "Ġ2031-11-03:",
    "7735": "Ġ2031-11-04:",
    "7736": "Ġ2031-11-07:",
    "7737": "Ġ2031-11-09:",
    "7738": "Ġ2031-11-10:",
    "7739": "Ġ2031-11-12:",
    "7740": "Ġ2031-11-14:",
    "7741": "Ġ2031-11-15:",
    "7742": "Ġ2031-11-17:",
    "7743": "Ġ2031-11-20:",
    "7744": "Ġ2031-11-22:",
    "7745": "Ġ2031-11-24:",
    "7746": "Ġ2031-11-26:",
    "7747": "Ġ2031-11-28:",
    "7748": "Ġ2031-11-30:",
    "7749": "Ġ2031-12-01:",
    "7750": "Ġ2031-12-02:",
    "7751": "Ġ2031-12-05:",
    "7752": "Ġ2031-12-07:",
    "7753": "Ġ2031-12-08:",
    "7754": "Ġ2031-12-09:",
    "7755": "Ġ2031-12-11:",
    "7756": "Ġ2031-12-14:",
    "7757": "Ġ2031-12-17:",
    "7758": "Ġ2031-12-18:",
    "7759": "Ġ2031-12-19:",
    "7760": "Ġ2031-12-20:",
    "7761": "Ġ2031-12-21:",
    "7762": "Ġ2031-12-22:",
    "7763": "Ġ2031-12-23:",
    "7764": "Ġ2031-12-25:",
    "7765": "Ġ2031-12-27:",
    "7766": "Ġ2031-12-28:",
    "7767": "Ġ2031-12-30:",
    "7768": "Ġ2031-12-31:",
    "7769": "Ġ2032-01-02:",
    "7770": "Ġ2032-01-03:",
    "7771": "Ġ2032-01-05:",
    "7772": "Ġ2032-01-07:",
    "7773": "Ġ2032-01-08:",
    "7774": "Ġ2032-01-09:",
    "7775": "Ġ2032-01-10:",
    "7776": "Ġ2032-01-11:",
    "7777": "Ġ2032-01-12:",
    "7778": "Ġ2032-01-13:",
    "7779": "Ġ2032-01-15:",
    "7780": "Ġ2032-01-17:",
    "7781": "Ġ2032-01-18:",
    "7782": "Ġ2032-01-19:",
    "7783": "Ġ2032-01-20:",
    "7784": "Ġ2032-01-21:",
    "7785": "Ġ2032-01-24:",
    "7786": "Ġ2032-01-26:",
    "7787": "Ġ2032-01-27:",
    "7788": "Ġ2032-01-30:",
    "7789": "Ġ2032-01-31:",
    "7790": "Ġ2032-02-02:",
    "7791": "Ġ2032-02-04:",
    "7792": "Ġ2032-02-05:",
    "7793": "Ġ2032-02-06:",
    "7794": "Ġ2032-02-08:",
    "7795": "Ġ2032-02-09:",
    "7796": "Ġ2032-02-11:",
    "7797": "Ġ2032-02-14:",
    "7798": "Ġ2032-02-15:",
    "7799": "Ġ2032-02-16:",
    "7800": "Ġ2032-02-19:",
    "7801": "Ġ2032-02-21:",
    "7802": "Ġ2032-02-23:",
    "7803": "Ġ2032-02-25:",
    "7804": "Ġ2032-02-26:",
    "7805": "Ġ2032-02-29:",
    "7806": "Ġ2032-03-01:",
    "7807": "Ġ2032-03-02:",
    "7808": "Ġ2032-03-03:",
    "7809": "Ġ2032-03-05:",
    "7810": "Ġ2032-03-08:",
    "7811": "Ġ2032-03-09:",
    "7812": "Ġ2032-03-11:",
    "7813": "Ġ2032-03-12:",
    "7814": "Ġ2032-03-14:",
    "7815": "Ġ2032-03-15:",
    "7816": "Ġ2032-03-16:",
    "7817": "Ġ2032-03-18:",
    "7818": "Ġ2032-03-19:",
    "7819": "Ġ2032-03-21:",
    "7820": "Ġ2032-03-24:",
    "7821": "Ġ2032-03-27:",
    "7822": "Ġ2032-03-30:",
    "7823": "Ġ2032-03-31:",
    "7824": "Ġ2032-04-01:",
    "7825": "Ġ2032-04-02:",
    "7826": "Ġ2032-04-03:",
    "7827": "Ġ2032-04-05:",
    "7828": "Ġ2032-04-06:",
    "7829": "Ġ2032-04-08:",
    "7830": "Ġ2032-04-09:",
    "7831": "Ġ2032-04-11:",
    "7832": "Ġ2032-04-13:",
    "7833": "Ġ2032-04-14:",
    "7834": "Ġ13.55",
    "7835": "Ġ2032-04-15:",
    "7836": "Ġ2032-04-17:",
    "7837": "Ġ2032-04-18:",
    "7838": "Ġ5:10/mi,",
    "7839": "Ġ2032-04-21:",
    "7840": "Ġ2032-04-22:",
    "7841": "Ġ12.77",
    "7842": "Ġ2032-04-24:",
    "7843": "Ġ2032-04-25:",
    "7844": "Ġ2032-04-28:",
    "7845": "Ġ2032-04-29:",
    "7846": "Ġ2032-05-02:",
    "7847": "Ġ2032-05-03:",
    "7848": "Ġ2032-05-04:",
    "7849": "Ġ2032-05-07:",
    "7850": "Ġ2032-05-09:",
    "7851": "Ġ2032-05-11:",
    "7852": "Ġ2032-05-12:",
    "7853": "Ġ2032-05-14:",
    "7854": "Ġ2032-05-16:",
    "7855": "Ġ2032-05-18:",
    "7856": "Ġ2032-05-21:",
    "7857": "Ġ2032-05-22:",
    "7858": "Ġ2032-05-24:",
    "7859": "Ġ2032-05-26:",
    "7860": "Ġ2032-05-28:",
    "7861": "Ġ2032-05-29:",
    "7862": "Ġ2032-05-30:",
    "7863": "Ġ2032-06-01:",
    "7864": "Ġ2032-06-02:",
    "7865": "Ġ2032-06-04:",
    "7866": "Ġ2032-06-06:",
    "7867": "Ġ2032-06-08:",
    "7868": "Ġ2032-06-09:",
    "7869": "Ġ2032-06-10:",
    "7870": "Ġ2032-06-12:",
    "7871": "Ġ2032-06-13:",
    "7872": "Ġ2032-06-16:",
    "7873": "Ġ2032-06-19:",
    "7874": "Ġ2032-06-21:",
    "7875": "Ġ2032-06-24:",
    "7876": "Ġ2032-06-25:",
    "7877": "Ġ2032-06-26:",
    "7878": "Ġ2032-06-27:",
    "7879": "Ġ2032-06-28:",
    "7880": "Ġ2032-06-29:",
    "7881": "Ġ2032-06-30:",
    "7882": "Ġ2032-07-03:",
    "7883": "Ġ2032-07-05:",
    "7884": "Ġ2032-07-07:",
    "7885": "Ġ2032-07-08:",
    "7886": "Ġ2032-07-09:",
    "7887": "Ġ2032-07-12:",
    "7888": "Ġ2032-07-13:",
    "7889": "Ġ2032-07-15:",
    "7890": "Ġ2032-07-18:",
    "7891": "Ġ2032-07-20:",
    "7892": "Ġ2032-07-21:",
    "7893": "Ġ2032-07-22:",
    "7894": "Ġ2032-07-23:",
    "7895": "Ġ2032-07-24:",
    "7896": "Ġ2032-07-26:",
    "7897": "Ġ2032-07-28:",
    "7898": "Ġ2032-07-29:",
    "7899": "Ġ2032-08-01:",
    "7900": "Ġ2032-08-03:",
    "7901": "Ġ2032-08-04:",
    "7902": "Ġ2032-08-06:",
    "7903": "Ġ2032-08-08:",
    "7904": "Ġ2032-08-10:",
    "7905": "Ġ2032-08-11:",
    "7906": "Ġ2032-08-14:",
    "7907": "Ġ2032-08-16:",
    "7908": "Ġ2032-08-18:",
    "7909": "Ġ2032-08-19:",
    "7910": "Ġ2032-08-22:",
    "7911": "Ġ2032-08-24:",
    "7912": "Ġ2032-08-27:",
    "7913": "Ġ2032-08-28:",
    "7914": "Ġ2032-08-30:",
    "7915": "Ġ2032-08-31:",
    "7916": "Ġ2032-09-01:",
    "7917": "Ġ2032-09-02:",
    "7918": "Ġ2032-09-03:",
    "7919": "Ġ2032-09-04:",
    "7920": "Ġ2032-09-05:",
    "7921": "Ġ2032-09-08:",
    "7922": "Ġ2032-09-09:",
    "7923": "Ġ2032-09-11:",
    "7924": "Ġ2032-09-14:",
    "7925": "Ġ2032-09-16:",
    "7926": "Ġ2032-09-17:",
    "7927": "Ġ2032-09-18:",
    "7928": "Ġ2032-09-19:",
    "7929": "Ġ2032-09-21:",
    "7930": "Ġ2032-09-22:",
    "7931": "Ġ2032-09-24:",
    "7932": "Ġ2032-09-25:",
    "7933": "Ġ2032-09-28:",
    "7934": "Ġ2032-09-30:",
    "7935": "Ġ2032-10-02:",
    "7936": "Ġ2032-10-03:",
    "7937": "Ġ2032-10-06:",
    "7938": "Ġ2032-10-07:",
    "7939": "Ġ2032-10-08:",
    "7940": "Ġ2032-10-09:",
    "7941": "Ġ2032-10-11:",
    "7942": "Ġ2032-10-14:",
    "7943": "Ġ2032-10-15:",
    "7944": "Ġ2032-10-17:",
    "7945": "Ġ2032-10-20:",
    "7946": "Ġ2032-10-22:",
    "7947": "Ġ2032-10-23:",
    "7948": "Ġ2032-10-25:",
    "7949": "Ġ2032-10-26:",
    "7950": "Ġ2032-10-27:",
    "7951": "Ġ2032-10-30:",
    "7952": "Ġ2032-11-01:",
    "7953": "Ġ2032-11-02:",
    "7954": "Ġ2032-11-03:",
    "7955": "Ġ2032-11-04:",
    "7956": "Ġ2032-11-05:",
    "7957": "Ġ2032-11-08:",
    "7958": "Ġ2032-11-09:",
    "7959": "Ġ21.83",
    "7960": "Ġ2032-11-10:",
    "7961": "Ġ2032-11-11:",
    "7962": "Ġ2032-11-13:",
    "7963": "Ġ2032-11-16:",
    "7964": "Ġ2032-11-17:",
    "7965": "Ġ2032-11-18:",
    "7966": "Ġ2032-11-19:",
    "7967": "Ġ2032-11-20:",
    "7968": "Ġ2032-11-21:",
    "7969": "Ġ2032-11-23:",
    "7970": "Ġ2032-11-24:",
    "7971": "Ġ2032-11-27:",
    "7972": "Ġ2032-11-29:",
    "7973": "Ġ2032-11-30:",
    "7974": "Ġ2032-12-02:",
    "7975": "Ġ2032-12-04:",
    "7976": "Ġ388",
    "7977": "Ġ2032-12-07:",
    "7978": "Ġ2032-12-10:",
    "7979": "Ġ2032-12-12:",
    "7980": "Ġ2032-12-13:",
    "7981": "Ġ2032-12-15:",
    "7982": "Ġ2032-12-17:",
    "7983": "Ġ2032-12-20:",
    "7984": "Ġ2032-12-23:",
    "7985": "Ġ2032-12-26:",
    "7986": "Ġ2032-12-28:",
    "7987": "Ġ2032-12-30:",
    "7988": "Ġ2033-01-01:",
    "7989": "Ġ2033-01-02:",
    "7990": "Ġ2033-01-03:",
    "7991": "Ġ20.58",
    "7992": "Ġ2033-01-05:",
    "7993": "Ġ2033-01-08:",
    "7994": "Ġ2033-01-09:",
    "7995": "Ġ21.61",
    "7996": "Ġ2033-01-11:",
    "7997": "Ġ2033-01-14:",
    "7998": "Ġ2033-01-15:",
    "7999": "Ġ2033-01-18:"
  },
  "merges": [
    [
      "a",
      "t"
    ],
    [
      "o",
      "n"
    ],
    [
      "e",
      "r"
    ],
    [
      "m",
      "i"
    ],
    [
      "Ġ",
      "1"
    ],
    [
      "l",
      "e"
    ],
    [
      "i",
      "n"
    ],
    [
      "Ġ",
      "t"
    ],
    [
      "i",
      "on"
    ],
    [
      "Ġ",
      "e"
    ],
    [
      "Ġ",
      "a"
    ],
    [
      "Ġ",
      "f"
    ],
    [
      "at",
      "ion"
    ],
    [
      "Ġ",
      "w"
    ],
    [
      "Ġ",
      "mi"
    ],
    [
      "o",
      "r"
    ],
    [
      "le",
      "s"
    ],
    [
      "a",
      "s"
    ],
    [
      "Ġmi",
      "les"
    ],
    [
      "Ġ",
      "b"
    ],
    [
      "Ġt",
      "h"
    ],
    [
      "at",
      "h"
    ],
    [
      "t",
      "."
    ],
    [
      "e",
      "d"
    ],
    [
      "c",
      "e"
    ],
    [
      "Ġ",
      "at"
    ],
    [
      "Ġ",
      "H"
    ],
    [
      "Ġa",
      "v"
    ],
    [
      "a",
      "in"
    ],
    [
      "Ġ",
      "P"
    ],
    [
      "Ġ",
      "2"
    ],
    [
      "Ġth",
      "e"
    ],
    [
      "Ġw",
      "as"
    ],
    [
      "Ġ",
      "W"
    ],
    [
      "0",
      "."
    ],
    [
      "/",
      "mi"
    ],
    [
      "e",
      "ath"
    ],
    [
      "Ġb",
      "p"
    ],
    [
      "Ġbp",
      "m"
    ],
    [
      "Ġ",
      "g"
    ],
    [
      "eath",
      "er"
    ],
    [
      "1",
      "0."
    ],
    [
      "f",
      "f"
    ],
    [
      "ff",
      "or"
    ],
    [
      "ffor",
      "t"
    ],
    [
      "le",
      "v"
    ],
    [
      "Ġ",
      "L"
    ],
    [
      "/mi",
      ","
    ],
    [
      "Ġav",
      "g"
    ],
    [
      "ĠH",
      "R"
    ],
    [
      "/",
      "10."
    ],
    [
      "lev",
      "ation"
    ],
    [
      "Ġg",
      "ain"
    ],
    [
      "Ġf",
      "t."
    ],
    [
      "ĠW",
      "eather"
    ],
    [
      "i",
      "v"
    ],
    [
      "Ġe",
      "ffort"
    ],
    [
      "-",
      "0"
    ],
    [
      "Ġ2",
      "0"
    ],
    [
      "Ġ",
      "r"
    ],
    [
      "u",
      "n"
    ],
    [
      "ĠP",
      "er"
    ],
    [
      "o",
      "c"
    ],
    [
      "Ġ",
      "on"
    ],
    [
      "Ġbpm",
      ","
    ],
    [
      "Ġe",
      "levation"
    ],
    [
      "ĠL",
      "oc"
    ],
    [
      "ĠLoc",
      "ation"
    ],
    [
      "ĠLocation",
      ":"
    ],
    [
      "ĠPer",
      "ce"
    ],
    [
      "ĠPerce",
      "iv"
    ],
    [
      "ĠPerceiv",
      "ed"
    ],
    [
      "y",
      "."
    ],
    [
      "s",
      "."
    ],
    [
      "a",
      "r"
    ],
    [
      "Ġ",
      "p"
    ],
    [
      "Ġ",
      "c"
    ],
    [
      "Ġ",
      "6"
    ],
    [
      "Ġ",
      "7"
    ],
    [
      "r",
      "a"
    ],
    [
      "r",
      "o"
    ],
    [
      "e",
      "s"
    ],
    [
      "Ġ",
      "R"
    ],
    [
      "Ġ",
      "8"
    ],
    [
      "a",
      "ce"
    ],
    [
      "Ġ",
      "9"
    ],
    [
      "in",
      "g"
    ],
    [
      "i",
      "l"
    ],
    [
      "Ġ",
      "C"
    ],
    [
      "e",
      "e"
    ],
    [
      "on",
      "d"
    ],
    [
      "ond",
      "i"
    ],
    [
      "ondi",
      "t"
    ],
    [
      "ondit",
      "ion"
    ],
    [
      "-",
      "1"
    ],
    [
      "v",
      "er"
    ],
    [
      "a",
      "l"
    ],
    [
      "u",
      "g"
    ],
    [
      "Ġ",
      "in"
    ],
    [
      "o",
      "ver"
    ],
    [
      "Ġ",
      "E"
    ],
    [
      "Ġ",
      "h"
    ],
    [
      "Ġ",
      "T"
    ],
    [
      "Ġ",
      "5"
    ],
    [
      "Ġ",
      "4"
    ],
    [
      "ra",
      "il"
    ],
    [
      "Ġr",
      "un"
    ],
    [
      "ar",
      "t"
    ],
    [
      "Ġ1",
      "1"
    ],
    [
      "n",
      "t"
    ],
    [
      "e",
      "l"
    ],
    [
      "Ġ1",
      "0"
    ],
    [
      "d",
      "a"
    ],
    [
      "Ġ",
      "3"
    ],
    [
      "u",
      "t"
    ],
    [
      "Ġ",
      "F"
    ],
    [
      "Ġt",
      "o"
    ],
    [
      "o",
      "t"
    ],
    [
      "Ġ1",
      "4"
    ],
    [
      "d",
      "."
    ],
    [
      "el",
      "t"
    ],
    [
      "a",
      "g"
    ],
    [
      "Ġ1",
      "5"
    ],
    [
      "Ġ",
      "l"
    ],
    [
      "Ġav",
      "er"
    ],
    [
      "Ġaver",
      "ag"
    ],
    [
      "Ġc",
      "ondition"
    ],
    [
      "Ġcondition",
      "s."
    ],
    [
      "Ġ1",
      "6"
    ],
    [
      "da",
      "y"
    ],
    [
      "Ġa",
      "ro"
    ],
    [
      "Ġaro",
      "un"
    ],
    [
      "Ġaroun",
      "d"
    ],
    [
      "Ġ",
      "—"
    ],
    [
      "e",
      "c"
    ],
    [
      "Ġ7",
      ":"
    ],
    [
      "Ġ1",
      "3"
    ],
    [
      "k",
      "."
    ],
    [
      "i",
      "s"
    ],
    [
      "Ġf",
      "or"
    ],
    [
      "er",
      "v"
    ],
    [
      "o",
      "g"
    ],
    [
      "ug",
      "h"
    ],
    [
      "Ġt",
      "rail"
    ],
    [
      "-",
      "2"
    ],
    [
      "e",
      "a"
    ],
    [
      "Ġ6",
      ":"
    ],
    [
      "a",
      "n"
    ],
    [
      "Ġ9",
      ":"
    ],
    [
      "on",
      "g"
    ],
    [
      "Ġ10",
      ":"
    ],
    [
      "Ġ",
      "s"
    ],
    [
      "Ġ",
      "M"
    ],
    [
      "Ġ1",
      "7"
    ],
    [
      "Ġ11",
      ":"
    ],
    [
      "Ġ1",
      "2"
    ],
    [
      "r",
      "ee"
    ],
    [
      "Ġth",
      "ro"
    ],
    [
      "Ġthro",
      "ugh"
    ],
    [
      "ee",
      "k"
    ],
    [
      "ĠP",
      "ar"
    ],
    [
      "e",
      "art"
    ],
    [
      "Ġr",
      "at"
    ],
    [
      "Ġrat",
      "e"
    ],
    [
      "er",
      "f"
    ],
    [
      "es",
      "t"
    ],
    [
      "Ġp",
      "ath"
    ],
    [
      "o",
      "w"
    ],
    [
      "ĠH",
      "eart"
    ],
    [
      ".",
      "1"
    ],
    [
      ".",
      "2"
    ],
    [
      "g",
      "y."
    ],
    [
      "Ġ8",
      ":"
    ],
    [
      "ĠPar",
      "k."
    ],
    [
      "Ġpath",
      "."
    ],
    [
      "as",
      "y"
    ],
    [
      "art",
      "le"
    ],
    [
      "artle",
      "k"
    ],
    [
      "Ġ20",
      "3"
    ],
    [
      "Ġ20",
      "4"
    ],
    [
      "Ġ20",
      "2"
    ],
    [
      "e",
      "m"
    ],
    [
      "em",
      "p"
    ],
    [
      "emp",
      "o"
    ],
    [
      "ec",
      "over"
    ],
    [
      "ecover",
      "y"
    ],
    [
      "/mi",
      "."
    ],
    [
      "erv",
      "al"
    ],
    [
      "Ġ20",
      "5"
    ],
    [
      "ĠF",
      "elt"
    ],
    [
      "r",
      "is"
    ],
    [
      "l",
      "y"
    ],
    [
      "Ġ",
      "N"
    ],
    [
      "ĠW",
      "eek"
    ],
    [
      "Ġ",
      "day"
    ],
    [
      "Ġrun",
      "."
    ],
    [
      "Ġmiles",
      ","
    ],
    [
      "ĠHR",
      "."
    ],
    [
      "ĠR",
      "an"
    ],
    [
      "e",
      "nt"
    ],
    [
      "Ġaverag",
      "e"
    ],
    [
      "Ġp",
      "ace"
    ],
    [
      "Ġaverag",
      "ed"
    ],
    [
      "Ġbpm",
      "."
    ],
    [
      "Ġ",
      "I"
    ],
    [
      "ĠM",
      "or"
    ],
    [
      "ĠMor",
      "n"
    ],
    [
      "ĠMorn",
      "ing"
    ],
    [
      "ĠC",
      "over"
    ],
    [
      "ĠCover",
      "ed"
    ],
    [
      "Ġmi",
      "n"
    ],
    [
      "Ġmin",
      "ut"
    ],
    [
      "Ġminut",
      "e"
    ],
    [
      "Ġminute",
      "s."
    ],
    [
      "ĠE",
      "ffort"
    ],
    [
      "ĠEffort",
      ":"
    ],
    [
      "ĠT",
      "r"
    ],
    [
      "ĠTr",
      "ain"
    ],
    [
      "ĠTrain",
      "ing"
    ],
    [
      "Ġl",
      "og"
    ],
    [
      "Ġlog",
      ":"
    ],
    [
      "Ġ",
      "@"
    ],
    [
      "ĠC",
      "ondition"
    ],
    [
      "ĠCondition",
      "s"
    ],
    [
      "ĠConditions",
      ":"
    ],
    [
      "ĠN",
      "ot"
    ],
    [
      "ĠNot",
      "es"
    ],
    [
      "ĠNotes",
      ":"
    ],
    [
      "ĠE",
      "levation"
    ],
    [
      "Ġgain",
      ":"
    ],
    [
      "Ġ",
      "G"
    ],
    [
      "ĠG",
      "ot"
    ],
    [
      "Ġ",
      "o"
    ],
    [
      "Ġo",
      "ut"
    ],
    [
      "Ġto",
      "day"
    ],
    [
      "ĠP",
      "ace"
    ],
    [
      "r",
      "es"
    ],
    [
      "i",
      "g"
    ],
    [
      "ig",
      "h"
    ],
    [
      "o",
      "o"
    ],
    [
      "Ġf",
      "elt"
    ],
    [
      ".",
      "8"
    ],
    [
      "l",
      "."
    ],
    [
      "e",
      "."
    ],
    [
      "oo",
      "d."
    ],
    [
      "ĠR",
      "ace"
    ],
    [
      ".",
      "6"
    ],
    [
      ".",
      "3"
    ],
    [
      ".",
      "4"
    ],
    [
      ".",
      "7"
[...]
